ffed
0017
0008
0004
0039
0005
0006
fff2
ffd8
000b
ffeb
000c
001c
000c
0006
0006
ffbf
0003
0008
000e
ffd3
000d
ffd4
0002
0008
0012
0016
0019
001b
ffe2
0001
0005
0003
0023
0014
0004
fff5
0018
0019
000b
fff6
0010
0005
0005
fffb
000e
0013
0008
ffe8
0006
ffde
001e
fffc
0013
0008
000a
000f
000e
fff4
0001
0011
0002
0003
ffdb
