000a
000d
0000
000c
ffff
fffa
0000
fffa
0001
0000
0000
0000
0000
0000
0000
0000
0000
0000
0004
0001
ffff
0001
fffe
ffff
0000
0000
0002
0003
0009
0000
0007
0000
fff9
0000
fffb
fffe
0001
fffd
fffe
fffd
fffc
0000
fffc
0003
0003
0000
0000
0000
0000
0000
0000
0000
0000
ffff
0000
0001
0000
0001
0001
ffff
0001
fffe
fffe
fffe
0001
0001
0001
0001
fffe
0000
0000
fffe
0000
0000
0000
0000
0000
0000
0000
0000
ffff
fffe
ffff
0000
ffff
0002
0002
0001
0001
0000
000b
0003
fffb
0002
fff8
fffc
fffa
fffd
0007
0001
ffff
ffff
ffff
fffd
0000
fffd
0001
0002
0000
0000
0000
0000
0000
0000
0000
0000
0001
0000
0000
ffff
0000
ffff
0000
0000
0000
0000
fffa
0000
0005
fffe
0009
0004
0004
0000
fffb
0000
0001
0000
0001
0000
ffff
0000
ffff
fffe
0000
0000
0000
0000
0000
0000
0000
0000
0000
0004
0003
ffff
0002
fffe
fffe
ffff
fffe
0002
0000
0000
0000
0000
0001
ffff
0000
0000
ffff
0000
0000
0000
0000
0000
0000
0000
0000
0000
0005
0005
fffe
0004
fffe
fffb
fffe
fffb
ffff
0008
0008
ffff
0008
fffe
fffb
fffe
fffb
0000
0000
0000
0000
0000
0000
0000
0000
0000
0000
fffb
fffd
0004
fffb
0005
0008
0001
0006
0000
0000
0000
0000
0000
0000
ffff
0000
ffff
0000
0001
0000
0000
0000
0000
0000
0000
0001
0001
fffb
0000
0001
fffe
0004
0002
0004
0000
fffc
0000
ffff
0000
ffff
ffff
0000
ffff
0000
0001
fffa
0000
0007
0000
0009
0001
0003
0003
fffc
0001
0000
ffff
0000
ffff
ffff
0000
ffff
0000
fffe
fffd
0003
fffc
0001
0008
0001
0006
0001
0003
0002
0001
0002
0002
0001
0002
0001
0001
0000
0000
0000
0000
0000
0000
0000
0000
0000
0002
ffff
ffff
ffff
fffe
0001
0000
0000
0001
0000
fffa
ffff
fffa
fffd
0007
0000
0004
0002
fffd
fffc
0005
fffb
0004
000b
0003
000c
0002
0000
0000
0000
0000
0000
0000
0000
0000
0000
fffd
fff9
0003
fff8
0000
000e
0001
0008
0002
0002
0003
0000
0003
ffff
fffd
ffff
fffd
0000
0000
0001
0000
0000
0001
0000
0000
0000
ffff
0000
ffff
ffff
ffff
ffff
0000
0000
0000
0001
ffff
0005
0000
0004
0001
fff9
0000
fffd
fffc
0000
fffe
0000
fffe
ffff
0000
fffe
0002
0000
0001
0006
0000
0005
0000
fff9
0000
fffc
fffd
0002
0000
fffe
0000
fffe
ffff
0000
ffff
0001
fffb
0000
0004
0000
0004
fffc
0000
0001
fffc
0001
fffe
fffe
fffe
fffd
0001
ffff
0000
0001
fffb
fffc
0007
fff9
0007
000e
0004
000b
0000
0002
0003
0000
0004
ffff
fffd
0000
fffb
ffff
fffd
ffff
0003
ffff
0002
0000
ffff
0002
ffff
0000
0000
0000
0000
0000
0000
0000
0000
0000
0007
000b
0000
000c
0000
fffa
0000
fff8
fffe
fffe
0000
0001
0000
0002
0000
0000
0000
fffe
fffb
fffc
0003
fffa
0003
0007
0002
0008
0000
ffff
0001
0000
0001
0002
0000
0002
fffe
fffd
fffe
fffe
0001
fffe
0001
0002
0000
0003
0000
fffd
0000
0002
0000
0003
0000
0000
0001
fffe
0001
0006
0000
0006
0001
fffc
0000
fffb
fffc
fffd
fffa
0003
fff9
0000
0008
0000
000c
0003
0000
0000
0000
0000
0000
0000
0000
0000
0001
fffc
fffc
0005
fffb
0004
0009
0003
000b
0001
0000
0000
0000
0000
ffff
0000
ffff
0000
ffff
0003
fffe
fffc
0000
fffb
0000
0000
ffff
0001
0008
0001
fffb
0001
fffa
fffe
ffff
ffff
0005
0009
0001
ffff
0003
fffd
fffd
0000
fffd
fffe
0000
0000
0000
0000
0000
0000
0000
0000
0000
0001
0000
0000
0000
ffff
0000
0000
0000
0000
000a
0002
0000
0003
fffb
fffa
0000
fffb
fffc
0000
0000
0000
ffff
ffff
ffff
0000
0000
ffff
0002
0002
0001
0002
0002
0001
0001
0001
0000
0002
0000
ffff
0002
ffff
fffe
0001
fffe
ffff
0002
0002
0001
0000
0000
ffff
0000
ffff
ffff
0000
0000
0000
0000
0000
0000
0000
0000
0000
0000
0000
0000
0001
0000
0000
0001
0000
0000
0004
0000
ffff
ffff
fffd
fffc
fffd
ffff
fffe
0001
0000
0000
0000
0000
0000
0000
0000
0000
0000
0000
0000
0000
0000
0001
0000
0001
0001
0000
0000
0000
0000
0000
0000
0000
0000
0000
0003
0002
0000
0006
0002
0000
0004
0000
0000
0002
0001
0000
0001
0000
0000
0000
0000
0000
0000
0000
0000
0000
0000
0000
0000
0000
0000
0002
0000
ffff
0000
ffff
ffff
ffff
ffff
0000
0001
0000
0000
0001
0000
0000
0000
0000
0000
0000
0000
0000
0001
0000
0000
0000
0000
0000
0005
0000
ffff
0001
fffd
fffd
ffff
fffd
fffe
0006
0000
ffff
0000
fffb
fffb
fffe
fffc
fffd
0001
0001
0000
0001
0000
0000
0000
0000
0000
0000
0001
0001
0002
0003
0001
0001
0001
0001
0000
0000
0000
0000
0000
0000
0000
0000
0000
0000
0000
0000
0000
0000
0000
0000
0000
0000
0003
0000
0000
0005
ffff
fffe
0003
fffe
ffff
0000
0000
0000
0000
0000
0001
0000
0001
0001
0003
0005
0003
0003
0002
0000
0002
0000
0000
0000
0000
0000
0000
0000
0000
0000
0000
0000
0000
0000
0000
0000
0001
0000
0000
0001
0000
0001
0001
0001
0001
0000
0000
0001
0000
0000
0001
0001
0000
0001
0001
0000
0001
0000
0000
0000
0000
0000
0000
0000
0000
0000
0000
0000
0000
0000
0000
ffff
0000
ffff
0000
ffff
fffe
0000
0001
0002
0002
0004
0002
0002
0002
0001
0001
0001
0001
0002
0001
0001
0001
0001
0000
ffff
0000
0000
ffff
0000
fffe
ffff
ffff
fffe
0003
0001
0000
0000
fffe
fffe
ffff
ffff
ffff
0004
0002
0000
0004
0002
0000
0002
0000
0000
0000
0000
0000
0000
0000
0000
0000
0000
0000
0006
0004
0001
0001
fffe
fffd
0000
fffe
fffe
0001
0001
0000
0000
0000
ffff
0000
0000
ffff
0007
0003
0000
0001
fffc
fffb
ffff
fffc
fffd
0001
ffff
ffff
0000
ffff
0000
0000
ffff
0000
0005
0006
0003
0001
ffff
fffd
0000
fffe
fffe
0000
ffff
0000
0000
ffff
0000
0000
0000
0000
0000
0002
0002
0003
0005
0002
0003
0002
0001
0003
fffe
fffe
0002
fffc
fffd
0000
fffc
fffd
0002
0004
0002
0000
0000
0000
0000
0000
0000
0000
0000
0000
0000
0000
0000
0000
0000
0000
000a
ffff
fffc
0004
fff9
fff9
0000
fff8
fffb
0000
0001
0001
0000
0000
0000
0000
0000
0000
0000
0000
0001
0001
0002
0001
0002
0001
0001
0003
0000
ffff
0003
ffff
fffe
0002
fffe
ffff
0000
0000
0000
0000
0001
0000
0000
0000
0000
0001
0002
0001
0000
0000
0000
0000
0000
0000
0006
0000
ffff
0004
fffd
fffd
0001
fffc
fffd
ffff
0000
ffff
0000
0000
ffff
0000
ffff
fffe
0000
0000
0000
0000
0000
0001
0000
0001
0001
ffff
0000
0000
0000
0000
0000
0000
0000
0000
0005
0004
0001
0004
0004
0001
0003
0002
ffff
0003
ffff
ffff
0001
fffd
fffe
0000
fffd
fffd
0003
ffff
ffff
0000
fffe
ffff
0000
fffe
ffff
0000
0000
0000
ffff
ffff
0000
0000
0000
0000
0003
0004
0003
0004
0005
0004
0003
0004
0003
ffff
0000
0000
ffff
0000
0000
0000
0000
0000
0000
0000
0000
0000
0000
0000
0000
0000
0000
0000
ffff
ffff
0000
ffff
ffff
0000
0000
0000
0007
0009
0008
0009
000a
0009
0007
0008
0007
0000
0000
0000
0000
0000
0000
0000
0000
0000
ffff
ffff
ffff
ffff
ffff
ffff
ffff
ffff
ffff
0003
0003
0003
0003
0003
0003
0003
0003
0003
0002
0003
0002
0003
0004
0003
0003
0004
0003
0000
ffff
0000
ffff
ffff
0000
0000
0000
0000
0000
ffff
ffff
0000
ffff
ffff
0000
ffff
ffff
0000
0000
0000
0000
0000
0000
0000
0000
0000
0001
0002
0002
0002
0003
0002
0001
0002
0001
0000
0000
0000
0000
0000
0000
0000
0000
0000
0004
0004
0003
0004
0004
0003
0003
0004
0003
0000
0000
0000
0000
0000
0000
0000
0000
0000
0000
0000
0000
ffff
ffff
0000
0000
0000
0000
0006
0006
0005
0006
0007
0006
0005
0006
0005
0000
ffff
ffff
0000
0000
ffff
0000
0000
0000
0004
0004
0003
0003
0004
0003
0002
0003
0002
0000
ffff
0000
ffff
ffff
0000
0000
0000
0000
0005
0006
0005
0006
0007
0006
0004
0006
0005
0003
0003
0003
0003
0004
0003
0003
0003
0003
0000
0000
0000
0000
0000
0000
0000
0000
0000
0000
0000
0000
0001
0001
0001
0000
0001
0000
0000
0000
0000
0000
ffff
0000
0000
ffff
0000
0000
0000
0000
0000
0000
0000
0000
0000
0000
0000
0000
0000
0000
ffff
0000
0000
0000
0000
ffff
ffff
ffff
ffff
ffff
ffff
ffff
ffff
ffff
0000
0000
0000
0000
0000
0000
0000
0000
0000
fffe
fffe
fffe
fffe
ffff
fffe
fffe
ffff
fffe
fffe
fffe
ffff
ffff
ffff
ffff
ffff
ffff
ffff
0000
0001
0002
0000
0001
0001
0000
0000
0001
0000
0000
0001
0000
0000
0000
0000
0000
0000
0000
0000
0000
0000
ffff
ffff
0000
ffff
0000
0001
0002
0002
0002
0003
0002
0001
0002
0002
0001
0000
0000
0000
ffff
ffff
0000
ffff
0000
0000
0000
0000
0000
0000
0000
0000
0000
0000
0002
0002
0002
0002
0003
0002
0002
0002
0002
0000
0000
0000
0000
0000
0000
0000
0000
0000
0002
0002
0002
0001
0002
0002
0001
0001
0002
0000
0000
0000
0000
0000
0000
0000
0000
0000
0000
ffff
ffff
ffff
ffff
ffff
ffff
ffff
ffff
0000
0000
0000
0000
0000
0000
0000
0000
0000
0000
ffff
0000
0000
ffff
ffff
0000
ffff
0000
0000
0000
0000
ffff
ffff
0000
ffff
ffff
ffff
0000
0000
0000
0000
ffff
0000
0000
ffff
0000
ffff
ffff
0000
ffff
fffe
ffff
ffff
fffe
ffff
0003
0004
0003
0003
0004
0003
0002
0002
0002
0000
0001
0001
0001
0001
0001
0000
0001
0001
0000
0000
0000
0000
ffff
0000
0000
0000
0000
0000
0000
0000
0000
0000
0000
0000
0000
0000
ffff
ffff
ffff
fffe
fffe
fffe
fffe
fffe
ffff
0001
0001
0001
0002
0002
0001
0002
0001
0001
0000
0000
0000
0000
0000
0000
0000
0000
0000
0001
0001
0001
0001
0000
0001
0001
0000
0001
0003
0003
0002
0003
0003
0002
0003
0003
0002
0000
ffff
0000
0000
ffff
ffff
0000
ffff
0000
ffff
ffff
ffff
ffff
fffe
ffff
ffff
ffff
ffff
0000
0000
0000
0000
ffff
0000
0000
ffff
0000
fffe
fffe
fffe
ffff
ffff
ffff
ffff
ffff
ffff
0000
0000
0001
0000
0000
0000
0000
0000
0000
ffff
0000
0000
ffff
ffff
0000
0000
0000
0000
0003
0000
0000
0000
ffff
0000
0000
0000
0001
0001
0001
0001
0001
0001
0001
0001
0001
0001
0000
0000
0000
0000
0000
0001
0000
0000
0001
0002
0001
0000
0000
ffff
0000
0000
0000
0000
0000
0000
0000
0000
0000
0000
0000
0000
0000
fffd
fffd
fffd
fffd
fffd
fffd
fffe
fffd
fffe
0001
0000
0000
0001
0000
0000
0000
0000
0000
0000
0000
0000
0000
0000
0000
0000
0000
0000
fffe
fffe
fffe
fffe
fffe
fffe
fffe
fffe
fffe
0000
0000
0000
0000
0000
0000
0000
0000
ffff
0001
0000
0001
0000
ffff
0000
0000
0000
0002
0002
0003
0003
0002
0003
0003
0003
0003
0003
000a
000b
000b
000b
000d
000c
000b
000c
000b
0001
0001
0001
0002
0001
0001
0001
0001
0001
0000
0000
0000
0000
0000
0000
0000
0000
0000
fffd
fffd
fffe
fffe
fffe
fffe
fffe
fffe
fffe
fffe
fffe
fffe
fffe
fffe
fffe
fffe
fffe
ffff
0002
0001
0001
0001
0000
0001
0001
0001
0002
fffe
fffd
fffe
fffe
fffd
fffe
fffe
fffe
fffe
fffe
fffe
ffff
fffe
fffe
fffe
fffe
fffe
fffe
0000
0000
0000
0000
ffff
ffff
0000
ffff
0000
0001
0000
0000
0000
ffff
0000
0000
0000
0000
0000
0000
0000
0000
0000
0000
0000
0000
0000
ffff
ffff
ffff
ffff
fffe
ffff
ffff
ffff
ffff
0002
0001
0001
0002
0001
0001
0001
0001
0002
0001
0002
0002
0002
0002
0002
0002
0002
0002
0001
0000
0000
0001
0000
0000
0001
0000
0000
0004
0004
0004
0005
0005
0005
0005
0005
0005
0000
0001
0001
0000
0000
0000
0000
0000
0000
0000
0000
0000
0000
0000
0000
0000
0001
0001
0001
0001
0002
0002
0002
0002
0001
0001
0001
0000
0000
0000
0000
0000
0000
0000
0000
0000
0000
0000
0000
0000
0000
0000
0000
0000
0000
fffe
fffe
ffff
fffe
fffe
fffe
fffe
fffe
fffe
0000
0000
0001
0001
0000
0001
0000
0000
0000
0001
0000
0001
0001
0001
0002
0000
0000
0000
0001
0001
0001
0001
0002
0001
0002
0002
0002
0000
0000
0000
0000
0000
0001
0000
0000
0000
0003
0002
0002
0001
0001
0001
0002
0002
0003
ffff
ffff
ffff
ffff
fffe
ffff
ffff
ffff
ffff
0003
0003
0003
0004
0004
0004
0003
0004
0003
0000
0000
0000
ffff
fffe
ffff
ffff
ffff
ffff
0000
0000
0001
0000
0000
0000
0000
0000
0001
0002
0002
0001
0000
0000
0000
0000
0000
0001
0002
0001
0002
0002
0002
0002
0002
0001
0002
0001
0002
0002
0000
0000
0000
0000
0000
0000
0000
0000
0001
0001
0000
0001
0000
0000
0000
0001
0001
0001
0001
0001
0001
0000
0000
0000
0000
0000
0000
0000
0000
0000
0000
0000
0000
0000
0000
0001
0000
0000
0000
0000
0000
0000
0003
0004
0004
0004
0004
0004
0004
0004
0004
0002
0000
0000
0000
ffff
0000
0000
ffff
0000
ffff
ffff
ffff
ffff
fffe
ffff
ffff
ffff
ffff
0001
0001
0001
0001
0001
0001
0000
0000
0000
0000
ffff
0000
0000
ffff
ffff
0000
ffff
ffff
0002
0003
0003
0003
0004
0004
0002
0003
0002
ffff
ffff
0000
ffff
ffff
ffff
ffff
ffff
ffff
0000
ffff
ffff
ffff
fffe
fffe
ffff
fffe
ffff
0000
0000
0001
0000
0000
0001
0000
0000
0000
0003
0003
0003
0004
0004
0004
0004
0004
0004
0000
0001
0002
0001
0001
0002
0000
0000
0000
0001
0001
0001
0001
0001
0001
0001
0001
0001
0000
0000
0000
0001
0000
0000
0000
0000
0000
0000
0000
0000
0000
0000
0000
0000
0000
0000
ffff
ffff
ffff
ffff
ffff
ffff
0001
0002
0001
0004
0004
0004
0005
0005
0005
0005
0005
0005
0001
0001
0001
0002
0002
0002
0002
0003
0002
ffff
ffff
ffff
0000
0000
ffff
0001
0000
0000
0000
fffe
ffff
0000
ffff
ffff
0002
0001
0000
0003
0003
0003
0003
0003
0003
0003
0003
0003
0000
0000
0000
0000
0000
0000
0000
0000
0000
0000
0000
0000
0000
0000
0000
0000
0000
0000
0001
0001
0001
0001
0001
0001
0001
0001
0001
0001
0001
0001
0002
0002
0002
0002
0002
0002
fffe
fffe
fffe
0000
ffff
fffe
0004
0004
0002
0000
0000
0000
0000
0000
0000
0001
0001
0000
0002
0002
0001
0002
0002
0002
0002
0002
0002
0001
0002
0002
0002
0003
0003
0001
0002
0002
fffe
fffe
fffe
0000
0000
ffff
0000
0000
0000
0001
0001
0000
0001
0001
0001
0001
0001
0001
0000
0000
0000
0000
0000
0000
0001
0001
0001
0000
0000
0000
0000
0000
0000
0001
0001
0001
0003
0003
0003
0003
0003
0003
0003
0003
0003
0000
0000
0000
0000
0000
0000
0000
0000
0000
0001
0001
0001
0001
0001
0001
0002
0003
0002
ffff
0000
ffff
0000
0000
ffff
0000
0000
0000
0003
0003
0003
0003
0003
0003
0003
0003
0003
0001
0000
0000
0003
0002
0002
0002
0001
0001
0000
0001
0000
0000
0001
0000
0000
0001
0001
0006
0006
0006
0008
0008
0007
0008
0008
0007
fffe
fffe
fffe
0000
0000
ffff
0000
0000
ffff
0000
0000
0000
0000
0000
0000
0000
0000
0000
0000
ffff
ffff
0000
0000
0000
0001
0000
0000
ffff
ffff
ffff
0000
ffff
ffff
0000
0000
ffff
0000
0000
0000
0002
0001
0001
0001
0000
0000
000c
000c
000b
000e
000e
000d
000e
000e
000d
0000
0000
0000
0000
0000
0000
0000
0000
0000
0002
0003
0002
0003
0004
0003
0002
0003
0002
0000
0000
0000
0003
0004
0002
0001
0002
0000
0000
ffff
ffff
0001
0000
0000
0000
0000
0000
0001
0001
0001
0002
0002
0002
0002
0002
0002
0001
0000
0000
0004
0003
0002
0001
0001
0000
0000
0000
0000
0000
0000
0000
0001
0002
0001
0001
0001
0000
0001
0001
0001
0002
0001
0001
0000
0000
0000
0000
0000
0000
0000
0000
0000
0000
0000
0000
0000
0000
0000
0003
0002
0001
0000
ffff
ffff
0000
ffff
ffff
0001
0000
0000
0000
0000
0000
0000
0000
0000
0001
0001
0000
0000
0000
0000
0001
0001
0001
0000
0001
0000
0000
ffff
ffff
0000
ffff
ffff
0002
0000
0000
ffff
ffff
ffff
0000
0000
0000
0000
0000
ffff
ffff
fffe
fffe
0000
0000
0000
0000
0000
0000
ffff
ffff
fffe
0000
0000
ffff
0000
0000
ffff
0001
0000
0000
0002
0000
0000
0003
0002
0001
0001
0001
0001
0002
0002
0001
0001
0002
0001
ffff
ffff
fffe
0000
0000
fffe
0000
0000
ffff
0000
0000
0000
0000
0000
0000
0000
0000
0000
ffff
fffe
ffff
0000
0000
0000
0000
0000
0000
0000
0000
0000
0001
0002
0001
0001
0001
0001
0001
0000
0000
0002
0001
0001
0001
0001
0000
0000
0000
0000
0000
0000
0000
0001
0000
0000
0001
0001
0001
0001
0001
0001
0001
0002
0001
0000
ffff
ffff
0002
0000
0000
0003
0001
0000
0000
0000
0000
0000
0000
0000
0000
0000
0000
0001
0000
0000
0003
0001
0000
0002
0000
0000
0001
0000
0000
0001
0001
0001
0002
0002
0001
0000
0000
0000
0001
0003
0002
0000
0001
0000
0000
0000
0000
0001
0002
0001
0001
0002
0001
0002
0001
0003
fffc
fffc
fffe
fffd
fffe
fffe
0000
0000
0000
0000
0000
0000
0000
0000
0000
0000
ffff
fffe
0000
0000
fffe
0000
0000
0000
0000
0006
0008
fff9
fffb
0001
fffa
fffa
ffff
fffd
0000
0006
fffc
fffd
0000
ffff
fffc
fffe
0001
0002
0002
0000
0001
0001
0000
0000
0000
0003
0002
0000
0003
0004
0000
0001
0003
0002
fffe
0000
0006
fffb
fffb
0000
fffd
fffb
fffd
0001
0001
0001
0001
0001
0001
0000
0001
0001
0001
0000
0000
0000
0001
0000
0000
0001
0001
fffd
fffe
0005
fffa
fff9
fffc
ffff
fffc
fffa
fffe
0000
0003
fffd
fffd
ffff
ffff
fffd
fffd
0000
0000
0000
0001
0000
0000
0002
0001
0000
0002
0000
ffff
0002
0002
ffff
0001
0002
0001
0002
0003
0002
fffe
0002
0004
fffe
ffff
0004
0001
0002
0002
0000
0000
0001
0000
0000
0000
0000
0000
0000
0001
0000
0000
0001
0001
0001
0000
0000
0000
0000
ffff
ffff
0000
0000
ffff
0000
0001
0002
0000
0000
0002
0000
0000
0001
0001
0001
0000
0000
0001
0001
0000
0000
0001
0002
0002
0002
fffe
ffff
0000
fffe
fffe
fffe
0002
0003
0003
fffc
fffd
0000
fffd
fffd
fffe
0000
0000
0000
0000
0000
0000
0000
0000
0000
ffff
0001
0006
fffc
ffff
0006
fffd
fffd
0003
0000
0000
0000
0000
0000
0000
0000
0000
0000
0000
ffff
ffff
0000
0000
0000
0001
0000
0000
0006
0003
0000
0005
0008
0001
0002
0006
0006
0000
ffff
0000
0000
0000
0000
0001
0000
0000
fffe
0004
000c
fff8
fffb
0007
fff9
fff8
0000
0000
0000
0000
0000
0000
0000
0001
0000
0000
0000
ffff
0001
0000
fffe
0000
0000
0000
0000
0000
ffff
ffff
0001
0000
0000
0002
0001
0001
0000
0000
0000
0000
0000
0000
ffff
0000
0000
0001
ffff
fffe
0002
0001
fffe
0000
0002
0000
0005
0000
fffe
0006
0003
fffe
0003
0006
0003
fffd
0000
0007
fffc
fffb
0003
fffd
fffb
0001
0000
0000
0000
0000
0000
0000
0000
0000
0000
0002
fffe
ffff
0002
0000
fffe
0001
0002
0001
0000
0001
0002
fffe
fffd
ffff
ffff
fffe
fffe
0000
0001
0001
0000
0000
0001
fffe
ffff
0000
0001
0000
ffff
0001
0000
0000
0001
0001
0000
ffff
0003
000a
fff9
fffa
0001
fffb
fff9
fffe
fffe
0001
0007
fffd
fffe
0002
ffff
fffd
ffff
0000
0004
0008
fff8
fffb
0001
fffa
fff9
fffe
0002
0000
0000
0003
0002
0000
0001
0002
0001
fffe
0003
000f
fff9
fffa
0003
fffb
fff8
fffe
0002
0000
fffe
0003
0002
ffff
0001
0003
0001
0000
0000
0004
fffd
ffff
0004
fffe
fffe
0004
0005
0001
ffff
0004
0005
0000
0001
0003
0002
fffd
0001
0009
fffa
fffb
0002
fffc
fff9
fffe
0000
0000
0000
0000
0000
0000
0000
0000
0000
0009
0007
0002
0000
0003
0002
fffe
0000
0001
0000
0002
0004
fffe
ffff
0002
ffff
fffe
0000
ffff
0000
0003
fffe
ffff
0004
fffe
fffe
0003
0004
0002
0000
0003
0005
0001
0001
0003
0003
ffff
0000
0002
ffff
ffff
0001
0000
fffe
0000
0000
0002
0006
fffd
fffe
0003
fffe
fffd
0000
0005
0005
0001
0001
0003
0001
0000
0001
0001
fffb
ffff
0009
fffc
fffb
0002
ffff
fffb
0000
0000
0000
0000
0002
0000
0000
0003
0002
0001
fffd
ffff
0006
fffd
fffc
0003
ffff
fffd
0001
0000
0001
0001
0000
0001
0001
fffd
0000
0000
0008
0001
ffff
0008
0008
0000
0003
0008
0005
0003
ffff
fffe
0004
0001
fffe
0001
0004
0001
fffc
fffd
0005
fffa
fffe
0008
fffe
0000
0006
0000
0000
0001
0000
0000
0000
0000
0000
0000
ffff
0000
0003
fffe
ffff
0001
fffe
fffe
0000
ffff
fffe
0000
ffff
0000
0003
0002
0003
0004
0000
0001
0002
0002
0004
0002
0002
0002
0000
0000
0000
0000
0001
0000
0000
0001
0001
0000
ffff
ffff
0001
fffe
fffe
ffff
fffe
fffe
ffff
0000
0000
0000
0000
0001
0001
0001
0002
0001
0000
0000
0000
0000
0000
0000
0001
0000
0000
0000
0000
0000
ffff
fffe
fffe
fffe
fffd
fffe
fffd
0000
0007
ffff
0005
000b
0001
0004
0007
0000
0001
0001
0001
0003
0002
0001
0001
0001
0001
0002
0002
0000
0001
0002
0000
0000
0000
ffff
0000
0002
fffe
fffe
0000
fffe
fffd
ffff
0000
0000
0000
fffd
fffb
fffb
fffe
fffc
fffd
0000
0000
0000
0000
0000
0000
0001
0001
0000
0000
0000
0000
0000
0000
0000
0000
0000
0000
ffff
0000
0003
fffe
0000
0003
ffff
0000
0001
0000
0000
0000
0000
0000
0000
0001
0000
0000
0000
0000
0000
0000
0000
0000
0001
0000
0000
fffe
fffe
0001
fffe
ffff
0003
0000
0000
0003
fffe
fffe
0003
fffd
ffff
0005
0000
0001
0004
0000
0000
0000
0000
0000
0000
0000
0000
0000
0003
0003
0002
ffff
fffd
fffd
fffe
fffc
fffd
0000
0000
0000
0000
0000
0000
0000
0000
0000
0000
0001
0002
0000
0001
0001
0000
0000
0000
0000
0000
0002
fffc
fffc
fffc
fffc
fffc
fffc
0000
0001
0001
0001
0001
0001
0000
0000
0000
0001
0000
ffff
0000
ffff
fffe
0001
0000
0000
0000
0000
0000
0000
0000
0000
0000
0001
0000
0002
0004
0004
ffff
ffff
ffff
fffe
fffd
fffe
0000
0001
0002
0000
0001
0001
fffd
ffff
0000
0000
0000
0000
0001
0000
0000
0002
0001
0000
0000
0000
0004
fffe
ffff
0000
fffe
fffe
ffff
0000
0002
0007
fffc
fffc
ffff
fffc
fffb
fffd
0005
0006
0005
0001
0000
ffff
fffe
fffc
fffd
0000
0000
0000
0001
0000
0000
0001
0001
0000
0002
0005
0007
fffc
fffb
fffd
fffb
fff9
fffb
ffff
0000
0001
ffff
0000
0003
0000
0001
0003
0000
0000
ffff
0001
0000
0000
0002
0001
0001
0000
0000
0002
0000
0000
0000
ffff
ffff
0000
0000
ffff
ffff
0000
0001
0002
0003
0004
0004
0001
0001
0001
0003
0003
0001
0002
0002
0001
ffff
ffff
0000
0000
0000
0002
0002
0002
0002
ffff
0000
0003
fffe
fffe
0000
fffe
fffe
0000
0002
0001
0000
0004
0003
0002
0005
0005
0004
ffff
0000
0003
fffe
fffe
0000
fffd
fffd
ffff
0003
0005
0005
fffd
fffc
fffd
fffc
fffb
fffd
fffd
fffd
0002
fffc
fffd
0000
fffd
fffd
0000
0000
0000
0000
0002
0001
0000
0002
0001
0000
0000
0000
0000
0000
0000
0000
0000
0000
0000
fffc
fffc
0001
fffb
fffb
0002
fffe
fffe
0001
0000
0000
ffff
0000
0000
0000
0000
0000
0000
0002
0003
0002
0000
ffff
fffe
fffe
fffd
fffd
ffff
ffff
0001
fffd
fffd
fffe
fffd
fffd
fffe
0002
0002
0001
0000
0000
0000
0000
ffff
ffff
0000
0000
0000
0001
0000
0000
0001
0000
0000
fffe
fffd
0000
fffd
fffd
0000
ffff
ffff
0000
0004
0006
0005
0003
0002
0000
0000
fffd
fffd
0000
0001
0002
0000
0001
0001
0000
0000
0000
0005
0007
0005
0001
0000
ffff
fffe
fffc
fffd
0001
0000
fffe
0002
0000
0000
0004
0003
0001
fffe
ffff
0005
fffc
fffc
ffff
fffb
fffb
fffe
fffe
0000
0007
fffc
fffd
0002
fffc
fffc
0000
0001
0000
0001
0000
0000
0000
0000
0000
0000
0002
0002
0002
0002
0003
0002
0002
0003
0002
0000
0000
0000
0000
0000
0000
0000
0000
0000
0000
0000
0000
0000
0000
0000
0000
0000
0000
0000
0000
0000
0000
ffff
0000
0000
0000
0000
ffff
0000
ffff
0000
0000
0000
ffff
0000
ffff
0000
0000
0000
0000
0000
0000
0001
0001
0001
0000
0000
0000
0000
0000
0000
0000
0000
0000
fffe
fffe
fffe
fffe
fffe
fffe
fffe
fffe
fffe
0000
0000
0000
0000
0001
0000
0000
0000
0000
0000
0000
0001
0000
0000
0000
0000
0000
0001
0001
0001
0002
0001
0001
0001
0001
0001
0001
0006
0007
0006
0007
0007
0007
0006
0007
0006
0001
0002
0002
0002
0002
0002
0001
0002
0002
0000
0000
0000
0000
0000
0000
0000
0000
0001
ffff
ffff
ffff
ffff
ffff
fffe
ffff
ffff
fffe
fffe
fffe
fffe
fffe
fffe
fffe
ffff
ffff
ffff
0001
0001
0001
0000
0000
0001
0001
0001
0001
fffe
ffff
fffe
fffe
ffff
fffe
fffe
ffff
fffe
fffe
fffe
fffe
fffe
fffe
fffe
fffe
fffe
fffe
0000
0000
0000
0000
0000
0000
0000
0000
0000
0000
0000
0000
0000
0000
0000
0000
0000
0000
0001
0002
0001
0002
0002
0002
0001
0002
0001
ffff
ffff
0000
0000
0000
0000
0000
0000
0000
0001
0001
0001
0001
0002
0002
0001
0002
0001
0001
0002
0001
0002
0003
0002
0001
0002
0001
0000
0000
0000
0000
0000
0000
0001
0001
0001
0001
0001
0001
0001
0001
0001
0001
0001
0001
0000
0000
0000
0000
0000
0001
0000
0000
0001
0000
ffff
ffff
ffff
ffff
ffff
ffff
ffff
ffff
0001
0000
0000
0001
0000
0000
0001
0001
0001
ffff
ffff
ffff
ffff
0000
ffff
ffff
0000
ffff
ffff
ffff
ffff
ffff
ffff
ffff
ffff
ffff
ffff
ffff
ffff
ffff
ffff
ffff
ffff
ffff
ffff
ffff
0000
0000
0000
0000
0000
0000
0001
0000
0001
0000
0000
0000
0000
0000
0000
0000
0000
0001
0002
0002
0002
0002
0003
0002
0002
0002
0002
0000
0000
0000
0000
0000
0000
0001
0000
0000
0002
0002
0002
0001
0002
0002
0001
0002
0001
0000
0000
0000
0000
0000
0000
0000
0000
0000
0001
0002
0002
0001
0002
0001
0002
0002
0001
0000
0000
0000
ffff
ffff
0000
ffff
0000
0000
0000
0000
0001
0000
0000
0000
0000
0000
0000
0000
0000
0001
0000
0000
0000
0000
0000
0000
0001
0001
0002
0001
0002
0002
0001
0002
0002
0000
0000
0001
0000
0000
0001
0000
0000
0000
0000
0000
0000
0000
0000
0000
0000
0000
0000
0000
0000
0000
0000
0000
0000
0001
0000
0001
0000
0000
0000
0000
0000
0000
0000
0000
0000
0001
0001
0001
0001
0001
0001
0001
0000
0001
0003
0004
0003
0003
0004
0004
0003
0004
0003
0000
0000
0000
0000
0000
0000
0000
0000
0000
ffff
ffff
0000
ffff
ffff
ffff
ffff
ffff
ffff
0000
0000
0000
0000
0000
0000
0000
0000
0000
0000
0000
0000
0000
0000
0000
0000
0000
0000
0002
0002
0002
0003
0002
0002
0002
0002
0002
ffff
ffff
0000
ffff
ffff
0000
ffff
ffff
0000
ffff
ffff
ffff
0000
ffff
0000
ffff
ffff
ffff
0000
0000
0000
0000
0000
0000
0000
0000
0000
0000
0000
0000
0000
0000
0000
0000
0000
0000
0000
0000
0001
0000
0000
0001
0000
0000
0001
0000
0000
0000
0000
0000
0000
0000
0000
0000
0000
0000
0000
0000
0000
0000
0001
0000
0001
0000
0000
0000
0000
0000
0000
0000
0000
0000
0000
0002
0002
0002
0005
0004
0001
0004
0002
ffff
ffff
ffff
ffff
ffff
ffff
ffff
ffff
ffff
0001
0002
0001
0000
0001
0001
0000
0001
0000
0000
0000
0000
0002
0003
0003
0002
0003
0001
0002
0001
0000
0003
0002
0001
0001
0001
0000
fffe
fffe
fffe
fffe
fffe
fffe
fffe
fffe
fffe
0000
0002
0002
0000
0001
0001
0000
0000
0000
0001
0000
0000
0002
0001
0001
0001
0001
0001
fffe
fffe
fffe
fffe
fffe
fffe
fffe
fffe
fffe
0001
0001
0001
0000
0000
0000
0000
0000
0000
0002
0003
0001
0004
0005
0003
0002
0004
0000
0001
0000
0000
0002
0001
0000
0000
0001
0000
fffe
fffe
fffe
fffe
fffe
fffe
fffe
fffe
fffe
0000
0001
0001
0000
0000
0000
0000
0000
0000
0002
0002
0002
0000
0000
0000
ffff
ffff
0000
ffff
ffff
ffff
ffff
ffff
ffff
ffff
ffff
0000
fffe
fffe
fffe
fffe
fffe
fffe
ffff
ffff
ffff
0000
0001
0001
0001
0002
0001
0000
0001
0000
fffe
fffe
ffff
ffff
fffe
ffff
ffff
ffff
ffff
ffff
ffff
ffff
ffff
ffff
ffff
ffff
ffff
ffff
0000
0000
0001
0000
0002
0002
0001
0002
0000
0000
0001
0001
0002
0003
0003
0002
0003
0001
ffff
ffff
ffff
ffff
ffff
ffff
ffff
ffff
ffff
0002
0002
0000
0001
0000
0000
0000
ffff
ffff
0000
0000
0000
0000
0000
0000
0000
0000
0000
ffff
ffff
ffff
ffff
ffff
ffff
ffff
ffff
ffff
0003
0004
0004
0000
0001
0002
ffff
0000
0000
0000
0000
0000
0000
0000
0000
0000
0000
0000
0001
0000
ffff
0002
0000
ffff
0001
0000
0000
ffff
ffff
ffff
ffff
ffff
ffff
ffff
ffff
ffff
0003
0002
0001
0001
0001
0000
0000
0000
0000
fffd
fffd
fffd
fffd
fffd
fffd
fffd
fffd
fffd
fffe
fffe
fffe
fffe
fffe
fffe
ffff
ffff
ffff
0001
0002
0001
0000
0001
0000
0000
0000
0000
0003
0005
0003
0001
0002
0001
0000
0000
0000
0004
0002
0000
0002
0001
0000
0001
0000
0000
fffe
fffe
fffe
fffe
fffe
fffe
ffff
fffe
ffff
0005
0005
0003
0002
0002
0001
0000
0000
0000
0000
0000
0000
0001
0002
0001
0001
0002
0001
fffe
fffe
ffff
fffe
fffe
ffff
ffff
ffff
ffff
0000
0001
0000
0000
0000
0000
0000
0000
0000
0000
0000
ffff
0002
0002
0001
0001
0002
0001
0001
0000
0000
0002
0001
0000
0001
0001
0000
0000
0000
0000
0002
0002
0002
0002
0002
0001
0000
0002
0001
0000
0001
0001
0000
0000
0000
0002
0000
0000
0004
0003
0001
0002
0003
0001
0001
0002
0001
0000
0001
0001
0000
0000
0000
0005
0004
0002
0002
0001
0000
0000
0000
ffff
0000
0002
0002
0000
0001
0002
0000
0001
0001
0001
0000
ffff
0003
0001
0000
0001
0001
0000
ffff
ffff
ffff
ffff
ffff
ffff
ffff
ffff
ffff
0000
0002
0003
0000
0003
0004
0000
0002
0001
0000
0000
0000
0000
0000
0000
0000
0000
0000
0002
0002
0001
0001
0000
0000
0000
0000
0000
0001
0002
0002
0000
0000
0001
ffff
0000
0000
0001
0000
0000
0001
0000
0000
0000
0000
0000
0000
0000
0000
0001
0000
0000
0000
0000
0000
ffff
0000
0001
0000
0000
0001
0000
0000
0001
0004
0002
0001
0004
0002
0000
0001
0001
0000
fffe
fffe
fffe
ffff
ffff
ffff
ffff
ffff
ffff
0004
0002
0001
0003
0001
0000
0001
0000
0000
fffc
fffb
fffc
fffc
fffb
fffc
fffd
fffc
fffd
0002
0005
0004
0000
0003
0003
0000
0001
0000
0002
0004
0003
0001
0003
0002
0000
0001
0000
0004
0004
0003
0001
0001
0001
0001
0003
0002
0000
0000
0000
0000
0000
0000
0000
0000
0000
0000
0000
0000
0000
0000
0000
0000
0000
0000
0004
0005
0004
0001
0001
0002
0001
0003
0003
0001
0000
0000
0000
ffff
0000
0001
0000
0000
0000
0001
0001
0001
0002
0002
0002
0002
0002
ffff
ffff
ffff
0000
0000
0000
0000
0000
0000
0001
0000
0001
0000
0000
0000
0000
0000
0000
0000
0000
0000
0000
0000
0000
0000
0000
0000
ffff
ffff
ffff
0000
0000
0000
0000
0000
0000
0005
0004
0003
0000
0000
0000
0003
0003
0002
0001
0000
0000
0000
0000
0000
0001
0000
0000
0000
0000
0000
0000
0000
0000
0000
0000
0000
ffff
ffff
ffff
0000
0000
0000
0000
0000
0000
fffd
fffd
fffe
0000
0000
0000
ffff
ffff
0000
0001
0001
0001
0000
0001
0001
0000
0001
0001
0000
0000
0000
0000
0000
0000
0000
0000
0000
0000
0000
0000
0000
0000
0000
0000
0000
0000
0000
0001
0001
0001
0001
0001
0001
0001
0001
0000
0000
0000
0000
0000
0000
0000
0000
0000
0002
0003
0002
0001
0001
0001
0001
0003
0002
0003
0003
0002
0000
0000
0001
0001
0002
0001
0000
0000
0000
0000
0001
0000
0001
0001
0001
fffe
fffd
fffe
0000
ffff
0000
ffff
ffff
0000
0000
0000
0000
0000
0000
0000
0000
0000
0000
0000
0000
0000
0000
0000
0000
0000
0000
0000
fffe
fffd
fffe
0000
0000
0000
ffff
fffe
ffff
0000
0000
0000
0000
0000
0000
0000
0000
0000
ffff
ffff
0000
0000
0000
0000
0000
ffff
0000
0000
0000
0000
0000
0000
0000
0000
0000
0000
0000
ffff
ffff
0000
ffff
ffff
0000
ffff
ffff
0002
0003
0002
0001
0001
0000
0000
0000
ffff
0000
0000
0000
0000
0000
0000
0001
0001
0001
0000
0000
0000
0000
0000
0000
0000
0000
0000
fffe
fffe
ffff
ffff
ffff
ffff
ffff
ffff
ffff
0000
fffe
fffe
0000
ffff
ffff
0000
ffff
0000
0000
0000
0000
0000
0001
0000
0001
0001
0001
ffff
fffe
fffe
0000
ffff
ffff
ffff
fffe
ffff
0002
0002
0002
0000
0000
0000
0001
0001
0001
0000
0000
0000
0001
0001
0001
0001
0002
0002
0000
0000
0000
0000
0000
0000
0000
0000
0000
0003
0004
0004
0001
0001
0002
0001
0002
0003
0001
0000
0000
0000
0000
0000
0000
0000
0000
0002
0002
0002
0000
0000
0000
0001
0001
0002
0000
ffff
0000
0000
0000
0000
0000
0000
0000
0002
0001
0002
0000
ffff
0000
0000
0000
0002
ffff
ffff
0000
0000
0000
0000
0000
0000
0000
fffe
fffe
fffd
ffff
ffff
ffff
fffe
fffe
fffe
ffff
ffff
0000
0000
0000
0000
0000
0000
0000
0001
0000
0001
0000
0000
0001
0000
0000
0001
0000
0000
0000
0000
0000
0000
0000
0000
0000
0001
0000
0000
0000
0000
0000
0000
0000
0001
0000
0000
0000
0000
0000
0000
0000
0000
0000
ffff
fffe
fffe
ffff
ffff
0000
ffff
ffff
ffff
fffe
fffe
ffff
0000
0000
0000
0000
0000
0000
0000
ffff
ffff
0000
0000
0000
0000
ffff
0000
0000
0000
0000
0000
0000
0000
0000
0000
0000
0000
0000
0000
0001
0001
0000
0000
0000
0000
0000
fffe
ffff
0000
fffe
ffff
0000
ffff
0000
0000
0000
0000
0000
0000
0000
0000
0000
0000
0000
fffe
ffff
0000
fffe
ffff
0000
ffff
0000
0000
0000
0000
0001
0002
0002
0003
0004
0004
fffe
fffe
ffff
ffff
ffff
ffff
0000
0000
ffff
ffff
ffff
0000
ffff
ffff
0000
0000
0000
0000
0000
fffa
fffe
fff9
fffe
000a
0001
000f
000c
0000
0000
0000
0000
0000
0000
0000
0000
0000
fffe
fffd
0000
ffff
0001
0003
0001
0002
0000
0002
fffd
fffe
fffa
fffc
0006
0000
0008
000b
fffc
0000
0000
fffd
0003
0001
0004
0002
fffe
0000
0000
0000
0000
0000
0000
0000
0000
0000
0000
0000
0000
0000
fffe
0000
fffe
ffff
0000
0001
0001
fffe
fffe
fffd
ffff
ffff
0000
0003
0000
0000
0000
0000
0000
0000
0000
0000
0000
0001
0002
0000
0004
0000
fffe
0000
fffe
fffe
fffb
fffa
0000
fff7
0003
0009
0006
000f
0003
fffe
ffff
0000
fffd
0001
0001
0002
0002
0000
0000
0000
0000
0000
0000
0000
0000
0000
0000
0000
0000
0000
0000
0001
0000
0000
0000
ffff
0005
0007
0001
0009
fffe
fffa
fffe
fffa
0000
0002
0000
0000
0000
ffff
0000
ffff
0000
0002
0000
0000
0000
0000
0000
0000
0000
0000
0000
ffff
fffd
0000
fffd
0000
0004
0001
0005
0002
0001
0000
0000
0000
ffff
0000
0000
0000
0000
0000
0000
0000
0000
0000
0000
0000
0000
0000
0000
fffc
ffff
fffc
ffff
0004
0000
0006
0005
0000
fffc
0000
fffb
ffff
0007
0001
000c
0008
0000
0000
0000
0000
0000
0000
0000
0000
0000
0001
0008
0003
0008
0003
fffd
0000
fffc
fffd
0000
ffff
0000
0000
0000
0000
0000
0000
0000
0000
0000
0000
0000
0001
0000
0000
0000
0000
0002
0002
0000
0007
ffff
fffd
fffe
fffc
fffe
ffff
0000
0000
0000
0001
0000
0000
0000
0000
0005
0008
0000
0004
fffc
fffb
fffe
fffb
0000
0000
ffff
0000
ffff
0000
0001
0000
0001
0000
ffff
0005
0003
0006
0006
ffff
0002
ffff
fffe
0000
0001
0002
0001
0000
0001
0000
0000
0001
0000
0000
0000
0000
0001
0000
0000
0000
0000
fffe
ffff
0001
0000
0003
0001
0000
0000
fffe
fffc
0001
0004
0004
0009
0000
0002
ffff
fffb
ffff
0007
0004
0009
0008
fffe
0004
fffd
fffc
0000
0000
0000
0000
0000
0000
0000
0000
0000
fffd
0008
0006
0008
000a
fffd
0002
fffd
fffb
0000
fffe
ffff
fffc
fffe
0002
0000
0005
0004
0001
0000
0000
0000
0000
0000
0000
0000
0001
ffff
0000
0000
0000
0001
0000
0000
0000
ffff
0003
fffe
fffd
fffb
fffa
0000
fffe
0003
0007
fffe
0000
0000
fffe
0000
0000
0001
0000
ffff
0002
fffd
fffd
fffa
fffb
0002
ffff
0005
0008
fffe
fffe
0000
ffff
0001
0002
0000
0001
0000
0002
0003
fffd
fffd
fff9
fffc
fffe
ffff
0003
fffe
fffe
0001
0000
0003
0001
0000
0000
fffe
0001
000c
0006
000d
0008
fffd
0003
fffd
fffd
0000
fffd
ffff
fffe
fffe
0001
fffe
0001
0001
0002
0004
ffff
0000
fffe
fffd
0000
fffe
0000
0000
0000
0000
0000
0000
0000
0000
0000
0000
0002
fffa
ffff
fffa
fffb
0005
fffe
0009
0009
0001
0001
0000
0000
fffe
ffff
ffff
ffff
0001
0000
0006
0003
0008
0004
fffd
0001
fffc
fffc
0002
0000
0000
0002
fffe
fffe
fffd
fffe
0000
0000
0002
0000
0002
0001
ffff
0000
fffe
fffe
0001
0003
0000
0000
fffe
fffe
ffff
fffe
0000
0003
fffe
fffe
fffd
fffb
0000
fffd
0002
0005
fffc
0004
0002
0004
0007
ffff
0005
fffd
fffb
0000
0000
0000
0000
0000
0000
0000
0000
0000
ffff
0007
0003
0009
0006
fffe
0003
fffc
fffc
0000
0000
0000
0000
0000
0000
0000
0000
0000
fffc
fffc
0001
0000
0004
0002
0000
0000
fffc
fffb
fffa
0000
fffd
0004
0007
0002
0005
ffff
0000
0004
0000
ffff
0004
ffff
ffff
0003
0000
0000
0000
0000
0000
ffff
ffff
0000
ffff
ffff
0000
0000
ffff
0000
0000
ffff
0000
0000
ffff
fffe
ffff
0003
fffe
fffe
0004
ffff
ffff
0003
0002
ffff
0000
0002
ffff
0000
0002
ffff
0000
0000
0000
0000
0000
0000
0000
0000
0000
0000
0000
0000
0000
ffff
0000
0000
0000
0000
0000
0001
fffe
0001
0001
ffff
0001
0001
ffff
0001
0002
0002
0002
0002
0002
0002
0002
0002
0002
0000
0000
0000
0000
ffff
0000
0000
0000
0000
0001
0000
fffd
0000
0000
fffc
0001
0000
fffd
0000
ffff
ffff
0000
ffff
ffff
0000
ffff
ffff
0000
0000
ffff
0000
0000
ffff
0000
0000
ffff
0000
0000
0000
0000
0000
ffff
0000
0000
0000
ffff
ffff
0003
ffff
fffe
0004
ffff
ffff
0004
0000
0001
0001
0001
0001
0001
0001
0001
0001
0002
0002
0002
0002
0002
0002
0001
0001
0001
0000
0000
ffff
0000
0001
ffff
0000
0001
0000
0000
0000
0001
0000
0000
0002
0000
0000
0001
0001
0002
0002
0002
0002
0002
0001
0002
0002
0000
0001
0000
ffff
0000
0000
ffff
0000
0000
0000
0003
0000
0000
0003
0000
0000
0003
0000
0000
0000
0000
0000
0000
0000
0000
0000
0000
0000
fffe
0002
0000
fffe
0003
0000
ffff
0003
0000
0000
0000
0000
0000
0000
0000
0000
0000
0000
0000
0000
ffff
ffff
ffff
ffff
ffff
ffff
ffff
0000
0000
fffe
0000
0000
ffff
0000
0000
0000
0000
ffff
0000
0000
0000
0000
0000
0000
0000
fffd
0004
0000
fffc
0005
0000
fffd
0005
0001
0002
0001
0002
0003
0001
0002
0003
0001
0000
ffff
0000
0000
ffff
0000
0000
ffff
0000
0000
0000
0001
0000
0000
0001
0000
0000
0000
0000
0001
0000
0001
0001
0000
0001
0001
0001
0000
0001
ffff
0000
0001
ffff
0000
0001
ffff
0000
0000
fffe
ffff
0000
fffe
0000
0000
fffe
0001
fffe
0001
0001
fffe
0001
0000
fffe
0002
0000
0000
0000
0000
ffff
0000
0000
0000
0000
0000
ffff
fffe
0000
ffff
fffd
0001
0000
ffff
0000
0000
ffff
ffff
0000
ffff
0000
0000
ffff
0000
0000
0001
0000
0000
0001
0000
0000
0001
0000
0000
ffff
0000
0000
ffff
0000
0000
ffff
0000
fffe
0003
0000
fffd
0004
0000
ffff
0003
0000
ffff
0001
0001
fffe
0001
0001
ffff
0001
ffff
ffff
0002
ffff
fffe
0003
0000
ffff
0003
0000
0000
0000
0000
0000
ffff
0000
0000
0000
0001
fffc
0004
0001
fffc
0004
0001
fffd
0004
0000
0002
0000
0000
0002
0000
0000
0002
0000
0000
fffe
0000
0000
fffd
0000
0000
fffe
0001
0000
0003
0000
0000
0004
0000
0000
0004
0001
0000
fffd
0001
0000
fffd
0002
0000
fffe
0002
0000
0000
0000
0000
0000
0000
0000
0000
0000
ffff
0004
0000
fffe
0004
0001
fffe
0003
0002
0001
0000
0002
0001
0000
0002
0001
0000
0002
0000
ffff
0001
0000
fffe
0002
0000
fffe
0002
0000
0000
0000
ffff
0000
0000
0000
0000
0001
0000
ffff
0000
0000
ffff
0000
0000
ffff
0000
0000
ffff
0002
0001
ffff
0003
0000
ffff
0003
0000
0002
0001
ffff
0002
0001
0000
0001
0002
0002
fffd
0001
0002
fffd
0001
0001
fffd
0002
0002
0002
0001
0002
0002
0001
0001
0001
0000
0001
fffe
0002
0000
fffe
0002
0000
fffe
0002
0000
0001
0000
0000
0001
0000
0001
0002
0001
0000
0002
ffff
ffff
0003
ffff
ffff
0002
0000
0000
0003
ffff
0000
0004
ffff
0000
0003
0000
0007
0008
0007
0006
0006
0004
0002
0000
0000
0000
0000
0000
0000
0000
0000
0000
0000
0000
0001
0000
0000
0000
0000
ffff
0000
0000
0000
0001
0004
0007
0000
0003
0006
ffff
ffff
0002
fffd
fffd
0000
fffd
fffd
ffff
fffe
fffd
ffff
0000
0001
0002
0000
0002
0003
0000
0002
0003
0000
ffff
0000
0000
0001
0001
0003
0003
0002
fffd
fffe
0001
fffd
fffd
0001
fffe
fffd
0000
0000
0000
0000
0000
0001
0001
0000
0001
0001
fffe
fffe
ffff
ffff
ffff
0001
0000
0001
0003
0000
0002
0003
0000
ffff
0000
ffff
fffc
fffd
fffe
fffe
0000
fffe
fffe
ffff
ffff
fffe
ffff
0002
0000
0000
0001
0000
0000
0001
0000
0000
0000
0000
0000
0000
0000
0000
0002
0001
0001
fffa
fffb
0000
fffb
fffd
0004
fffe
0002
0007
0000
0000
0001
0000
0001
0002
0000
0000
0001
0001
0000
0000
0001
0000
0000
0001
0000
0000
0001
0001
0001
0001
0000
0000
0000
0000
0000
0000
0000
0001
0000
0000
0001
0000
0000
0001
0000
0000
0000
0000
0001
0001
0000
0001
0002
0003
0004
0004
0003
0003
0003
0000
0000
0000
0004
0005
0005
0004
0004
0004
0001
0000
0000
0000
0000
0001
0000
0001
0001
0000
0001
0001
fffa
fffa
ffff
fffa
fffb
0001
fffb
fffe
0005
0000
0000
0000
0001
0000
0000
0001
0000
0000
0001
0000
0000
0001
0000
0000
0001
0000
0000
fffd
fffc
0000
fffe
ffff
0002
0002
0005
0007
0001
0000
0000
0000
0000
ffff
0000
0000
0000
fff9
fffa
0001
fff8
fffb
0004
fffa
fffd
0005
0001
0001
0001
0001
0001
0000
0001
0000
0000
fffe
fffd
fffe
fffd
fffd
ffff
fffe
fffe
0001
0004
0001
0000
0003
0001
ffff
0003
0000
ffff
0000
0001
0001
0000
0001
0002
0000
0002
0002
0000
ffff
ffff
0000
ffff
ffff
0000
0000
0000
ffff
fffd
fffe
fffe
fffd
ffff
0001
0001
0003
fffc
fffb
fffe
fffb
fffc
0000
fffb
fffc
0001
0000
0000
0001
0000
0001
0001
0000
0001
0001
fffd
fffb
fffc
fffc
fffc
ffff
ffff
0000
0003
0001
0002
0002
0000
0001
0001
0000
0000
0000
ffff
0000
0002
0000
0002
0003
0000
0002
0003
0000
0000
0000
0000
0000
0000
0000
0000
0000
fffd
0000
0006
fffd
ffff
0005
fffd
fffe
0002
fffd
fffd
0000
fffd
fffd
0000
fffe
fffe
0000
ffff
0001
0005
fffe
0000
0005
fffe
ffff
0002
0001
0000
0000
0001
0000
0000
0002
0001
0000
fff9
fffa
0002
fff9
fffa
0002
fffc
fffc
0002
0000
0000
ffff
0000
0000
0000
0001
0000
0001
fffb
fffb
fffe
fff9
fffb
0000
fffb
fffe
0005
0001
0000
0001
0003
0002
0002
0004
0003
0002
fffb
fffc
0001
fffb
fffb
0001
fffc
fffc
0001
0000
0000
0000
0000
0000
0000
0000
0000
0000
0005
0005
0006
0007
0008
0006
0006
0004
0004
ffff
ffff
0001
ffff
0000
0002
ffff
ffff
0001
fffc
fffb
fffe
fffa
fffb
0000
fffc
fffe
0003
fffe
fffe
0000
0000
0000
0002
0003
0004
0005
fffe
fffd
ffff
fffe
fffd
0000
fffe
fffe
0000
fffd
fffd
0000
fffd
fffd
0001
fffe
fffe
0001
0001
0001
0002
0003
0004
0003
0003
0003
0003
fffc
fffa
fffe
fffa
fffa
ffff
fffb
fffb
0000
0003
0001
0000
0003
0001
0000
0002
0001
0000
fffc
fffb
fffe
fffb
fffb
0000
fffc
fffc
0002
ffff
0002
0004
0000
0004
0005
0000
0004
0006
0000
ffff
0000
0001
0000
0000
0005
0004
0004
0002
0000
0000
0002
0000
ffff
0003
0000
0000
0000
fffd
0000
0001
fffe
fffd
0007
0006
0003
0000
0000
0000
0000
0000
0000
0000
0000
0000
0001
0000
0000
0002
0001
0000
0002
0003
0002
fffd
fffd
0000
fffd
fffa
fffd
0001
fffd
0000
0000
fffb
fffd
0001
fffa
fffa
0008
ffff
fffc
0000
0001
0003
0000
0000
0002
ffff
0000
0001
0004
0003
0002
0002
0004
0004
0001
0002
0003
fffe
fffc
fffe
0000
fffb
fffc
0003
fffe
fffc
0000
0001
0001
0000
0000
0001
0000
0000
0001
0001
0001
0000
0000
0000
0001
0000
0000
0001
0000
fff9
fffb
0002
fff8
fff7
000e
0004
fffe
0000
fffc
fffe
0001
fffc
fffc
0005
0000
fffd
0000
0000
ffff
0001
0000
ffff
0001
0000
ffff
0003
0001
0001
0002
0003
0002
0000
0001
0002
0000
0000
0001
fffe
ffff
0002
fffe
fffe
0003
0000
0000
0002
0000
0000
0001
0000
0000
0000
0000
0000
0000
0000
0000
0000
0000
0000
0000
0000
ffff
ffff
0001
0000
ffff
0003
0003
0001
0000
0000
0002
ffff
0000
0001
ffff
0000
0001
0000
0001
0001
0000
0000
0001
0000
0000
0001
0000
0000
0001
0000
ffff
0000
0002
0001
0002
0000
fffe
0000
ffff
fffd
fffe
0003
0000
0000
0000
0000
0001
0000
0000
0001
0000
0000
0000
0000
fffc
fffe
0000
fffb
fffe
0000
fffc
ffff
0001
0000
0000
0001
0001
0000
0000
0000
0001
0000
0000
ffff
0001
0000
0000
0002
0001
0000
0006
0004
0002
0003
0006
0005
0000
0002
0006
0000
0000
ffff
0001
0000
ffff
0001
0000
0000
fffc
fffb
0000
fffc
fff9
fffd
0000
fffa
fffc
0000
0000
0000
0000
0000
0000
0001
0001
0000
0003
fffd
fffd
0003
fffd
fffc
0003
ffff
ffff
0000
0000
fffd
0002
0003
0000
0002
0002
0000
0000
0001
0002
0000
0001
0001
0000
0000
0001
0003
0001
0000
0003
0003
0001
0001
0002
0001
0009
0003
ffff
0008
0006
0000
0003
0003
0002
0001
fffa
fffc
0002
fff9
fffa
0004
fffc
fffd
0000
0000
0001
0000
0000
0001
0000
0000
0000
0009
ffff
fffb
0009
0000
fffc
0005
0000
ffff
ffff
fffe
ffff
0000
fffe
fffd
0002
0000
ffff
0000
0001
0002
ffff
0000
0002
ffff
0000
0001
0001
0000
0000
0001
0001
0000
0001
0001
0000
fffb
fffc
0000
fffd
fffa
fffb
0002
fffd
fffd
0000
fffd
fffe
0000
fffd
fffd
0004
fffe
fffd
fffc
fffd
0000
fffd
fffa
fffd
0001
fffd
fffe
0003
0001
0001
0003
0004
0002
0002
0003
0003
fffd
fffa
fffd
0000
fffa
fffa
0006
fffb
fffa
0004
0002
0000
0004
0004
0001
0001
0002
0002
0003
fffc
fffc
0002
fffb
fffc
0001
fffd
ffff
0005
0002
0002
0004
0005
0004
0001
0003
0004
fffd
fffa
fffe
ffff
fffa
fffb
0003
fffb
fffb
0000
0000
0000
0000
0000
0000
0000
0000
0000
0005
0003
0005
0003
0004
0006
0002
0003
0006
ffff
ffff
0000
ffff
fffe
0000
0000
fffe
ffff
0000
fffd
ffff
0000
fffc
fffe
0000
fffd
ffff
0004
0004
0003
0002
0005
0005
0000
0002
0005
0000
fffd
fffe
0000
fffd
fffe
0001
fffe
fffe
ffff
fffd
0000
ffff
fffd
fffe
0000
fffd
fffe
0003
0003
0004
0001
0003
0005
0000
0001
0004
0001
fff8
fffb
0004
fff8
fff8
000a
fffe
fffc
0001
0000
ffff
0002
0001
0000
0002
0001
0000
0001
fff9
fffb
0003
fff9
fffa
0005
fffd
fffd
0000
0002
0004
ffff
0001
0003
fffe
0000
0002
000a
0007
0003
0009
000d
0006
0004
0007
0007
0005
0002
0000
0006
0007
0002
0005
0008
0006
0001
0000
0000
0000
0000
0000
0000
0000
0000
0000
0000
0000
0000
0000
0000
0000
0000
0000
0000
0000
0000
0000
0000
0000
0000
0000
0000
0001
0001
0001
0001
0001
0001
0001
0001
0001
0000
0000
0000
0000
0000
0000
0000
0000
0000
0000
ffff
0000
0000
0000
0000
0000
0000
0000
0000
0000
0000
0000
0000
0000
0000
0000
0000
0000
0001
0001
0000
0001
0002
0000
0001
0002
0000
0000
0000
0000
0000
0000
0000
0000
0000
0000
ffff
0000
ffff
ffff
ffff
0000
0000
0000
0000
0000
0000
0000
0000
0000
0000
0000
0000
0000
0000
0000
0000
0000
0000
0000
0000
0000
0000
0000
0000
0000
0000
0000
0000
0000
0000
ffff
0000
0000
ffff
0000
0000
0000
0000
0000
fffe
fffe
ffff
ffff
fffe
ffff
0000
0001
0002
0000
0000
0000
0000
0000
0000
0000
0000
0000
0000
0000
0000
0000
0000
0000
0000
0000
0000
0000
0000
0000
0000
0000
0000
0000
0000
0000
0000
0000
0000
0000
0000
0000
0000
0000
0000
0000
0001
0001
0001
0001
0001
0001
0002
0001
0000
0000
0000
0000
0000
0000
0000
0000
0000
0002
0002
0001
0002
0002
0001
0001
0002
0001
0000
0000
0000
0000
0000
0000
0000
0000
0000
ffff
ffff
ffff
ffff
ffff
ffff
0000
0000
0000
0000
0000
0000
0000
0000
0000
0000
0000
0000
0000
0000
0000
0000
0000
0000
0000
0000
0000
fffe
fffe
ffff
ffff
fffe
ffff
0000
0001
0000
0000
0001
0000
0000
0000
0000
0000
0000
0000
ffff
ffff
0000
ffff
0000
0001
0000
0001
0004
0001
0002
0001
0002
0002
0002
0001
0002
0001
0000
0000
0000
0000
0000
0000
0000
0000
0000
0000
0000
0000
0000
0000
0000
0000
0000
0000
0000
0001
0001
0001
0002
0002
0001
0002
0002
0000
0000
0000
0000
0000
0000
0000
0000
0000
0000
0000
0000
0000
0000
0000
0000
0000
0000
ffff
ffff
ffff
ffff
ffff
0000
ffff
0000
0001
0000
0000
0000
0000
0000
0000
0000
0000
0000
ffff
ffff
ffff
ffff
ffff
ffff
0000
0000
0000
0000
0000
0000
0000
0000
0000
0000
0000
0000
0000
0000
0000
0000
0000
0000
0000
0001
0001
0000
0000
0000
0000
0000
0000
0000
0000
0000
0000
0000
0000
0000
0000
0000
0000
0000
0001
0000
0000
0000
0000
0000
0000
0000
0000
0000
0002
0002
0002
0001
0002
0003
0001
0002
0002
0000
0000
0000
0000
0000
0000
0000
0000
0000
0000
0000
0001
0000
0000
0002
0000
0000
0003
0000
0000
0000
0000
0000
0000
0000
0000
0000
ffff
ffff
ffff
ffff
fffe
ffff
0000
0000
0001
0000
0000
0000
0000
0000
0000
0002
0002
0001
ffff
ffff
0000
ffff
ffff
0000
0000
0000
0000
0000
0000
0000
0000
0000
0000
0000
0000
0000
0001
0000
0000
0001
0001
0000
0003
0003
0002
0000
0000
0000
0000
0000
0001
0000
0000
0001
ffff
ffff
ffff
ffff
ffff
0000
0000
0000
0001
ffff
ffff
0000
ffff
ffff
0000
0000
0000
0000
0000
0000
0000
0000
0000
0000
0000
0000
0000
0000
0000
0000
0000
0000
0000
0000
0000
0000
0000
ffff
0000
0000
0000
0000
0000
0001
0000
ffff
ffff
ffff
0000
ffff
0000
0000
0000
0001
0000
0001
0000
0000
0000
0000
0000
0000
0000
0000
0000
0000
0000
0000
0000
0000
0000
0001
0000
0001
0001
0002
0003
0003
0003
0004
0004
ffff
ffff
0000
0000
0000
0000
0000
0000
0000
0000
0000
0000
0000
0000
0000
0000
0000
0000
0000
0000
0000
0000
0000
0001
0000
0000
0001
0001
0001
0001
0001
0001
0001
0001
0001
0001
0000
0000
0001
0000
0000
0001
0000
0000
0001
0000
ffff
0000
0001
0000
0000
0001
0000
0000
0000
0000
0000
0000
0000
0000
0000
0000
0000
fffe
fffe
fffe
fffe
fffe
fffe
fffe
fffe
fffe
0000
0001
0001
0000
0000
0001
0001
0000
0001
0000
0000
0000
0000
0000
0000
0000
0000
0000
fffe
fffe
fffe
fffe
fffe
fffe
fffe
fffe
fffe
0000
0000
0000
0000
0000
0000
0000
0000
0000
0000
0000
0000
0000
0001
0000
0000
0000
0001
0002
0002
0001
0004
0004
0002
0003
0004
0003
000a
000b
000a
000b
000d
000c
000b
000c
000b
0001
0002
0002
0001
0001
0002
0001
0001
0001
0000
0000
0000
0000
0000
0000
0000
0000
0000
fffe
fffe
fffe
fffe
fffe
fffe
fffd
fffd
fffe
ffff
fffe
fffe
fffe
fffe
fffe
fffe
fffe
fffe
0001
0001
0001
0001
0002
0002
0001
0001
0002
fffe
fffe
fffe
fffd
fffe
fffe
fffd
fffe
fffe
ffff
ffff
ffff
fffe
fffe
ffff
fffe
fffe
fffe
0000
ffff
0000
0000
0000
0000
0000
0000
0000
0000
0000
0000
0000
0000
0000
0000
0000
0000
0000
0000
0000
0000
0000
0000
0000
0000
0000
ffff
ffff
fffe
ffff
ffff
fffe
ffff
ffff
ffff
0001
0002
0002
0001
0001
0002
0002
0001
0002
0002
0002
0002
0002
0002
0002
0002
0002
0002
0000
0001
0002
0000
0000
0001
0001
0000
0000
0004
0005
0004
0005
0006
0005
0004
0005
0004
0000
0000
0000
0000
0000
ffff
0001
0001
0000
0000
0000
0000
0000
0001
0001
0000
0001
0000
0001
0002
0001
0001
0001
0001
0001
0001
0001
0000
0000
0000
0000
0000
0000
0000
0000
0000
0000
0000
0000
0000
0000
0000
0000
0000
0000
fffe
fffe
fffe
fffe
fffe
fffe
ffff
fffe
ffff
0000
0001
0001
0000
0000
0001
0000
0000
0001
0001
0000
0000
0000
0000
0000
0000
0000
0000
0002
0002
0002
0002
0002
0002
0002
0002
0002
0000
0000
0000
0000
0000
0000
0000
0000
0000
0001
0001
0001
0002
0002
0002
0002
0002
0003
ffff
ffff
0000
ffff
ffff
ffff
ffff
ffff
ffff
0003
0005
0004
0003
0004
0005
0003
0003
0004
ffff
ffff
ffff
ffff
ffff
ffff
ffff
0000
ffff
0000
0000
0000
0000
0000
0000
0000
0001
0000
0000
0000
0000
0001
0000
0000
0001
0001
0000
0002
0002
0003
0001
0002
0003
0002
0001
0002
0000
0000
ffff
0001
0001
0000
0001
0002
0000
0000
0001
0001
0000
0000
0001
0000
0000
0001
0001
0001
0000
0000
0000
0000
0001
0000
0000
0000
0000
0001
0000
0000
0001
0000
0000
0001
0000
0000
0000
0000
0000
0000
0000
0001
0000
0004
0004
0004
0004
0005
0004
0004
0004
0004
0000
0000
0001
0000
ffff
0001
0000
0000
0001
ffff
ffff
ffff
ffff
ffff
ffff
ffff
ffff
ffff
0001
0000
0000
0000
0000
0000
0000
0000
0000
0000
0000
0000
0000
ffff
0000
0000
0000
0000
0003
0003
0002
0003
0003
0002
0002
0003
0002
ffff
ffff
ffff
ffff
ffff
ffff
ffff
ffff
ffff
ffff
ffff
ffff
ffff
ffff
ffff
ffff
ffff
ffff
0000
0000
ffff
0000
0000
0000
0000
0000
0000
0003
0004
0003
0004
0004
0004
0003
0004
0003
0000
0000
0000
0000
0000
0000
0000
0000
0000
0002
0002
0002
0002
0002
0002
0002
0002
0002
0000
0000
0001
0000
0000
0001
0000
0000
0001
0000
0000
0000
0000
0000
0000
0000
0000
0000
0001
0004
0002
0004
0004
0002
0002
0001
0000
ffff
ffff
ffff
ffff
ffff
ffff
ffff
ffff
ffff
0001
0001
0000
0001
0000
0000
0001
0000
0000
0000
0002
0002
0002
0003
0004
0000
0001
0000
0001
0002
0003
0000
0001
0003
ffff
0000
0001
fffe
fffe
fffe
fffe
fffe
fffe
fffe
fffe
fffe
0000
0001
0000
0001
0001
0000
0001
0002
0001
0000
0001
0002
0000
0002
0003
0000
0000
0002
ffff
ffff
ffff
ffff
ffff
ffff
ffff
ffff
ffff
0000
0000
0000
0000
0000
0000
0000
0001
0000
0003
0004
0004
0002
0002
0002
0000
ffff
ffff
0000
0001
0002
0000
0000
0002
ffff
0000
0000
ffff
fffe
ffff
fffe
fffe
fffe
fffe
fffe
fffe
0000
0000
0000
0000
0000
0000
0000
0001
0000
0000
0001
0002
0000
0001
0002
0002
0004
0003
ffff
0000
0000
0000
0000
0000
0000
0000
0000
0000
ffff
ffff
ffff
ffff
ffff
ffff
ffff
ffff
0001
0001
0001
0001
0001
0000
0000
0000
0000
ffff
ffff
ffff
ffff
ffff
ffff
ffff
ffff
ffff
0000
ffff
ffff
ffff
ffff
ffff
ffff
ffff
ffff
0000
0001
0000
0002
0002
0001
0000
0000
0000
0001
0002
0001
0003
0003
0002
0001
0001
0000
ffff
ffff
ffff
ffff
ffff
ffff
ffff
ffff
ffff
0000
0000
0002
0000
0001
0003
0000
0002
0003
0000
0000
0000
0000
0000
0000
0000
0000
0000
ffff
fffe
ffff
fffe
fffe
fffe
ffff
fffe
fffe
0000
0001
0000
0001
0001
0001
0002
0003
0003
0000
ffff
ffff
ffff
ffff
ffff
ffff
ffff
ffff
0000
0002
0003
0000
0002
0004
0000
0002
0004
0000
ffff
ffff
0000
ffff
ffff
ffff
ffff
ffff
0000
0000
0001
0000
0000
0002
0000
0001
0002
fffd
fffc
fffc
fffc
fffa
fffa
fffc
fffb
fffb
ffff
fffe
fffe
ffff
fffe
fffe
ffff
fffe
fffe
0000
0000
0000
0000
0000
0000
0001
0000
0000
0000
0000
ffff
0000
0000
0000
0002
0002
0002
ffff
0000
0003
ffff
0001
0004
0000
0001
0003
ffff
fffe
fffe
ffff
ffff
fffe
ffff
fffe
fffe
0000
ffff
0000
0000
0000
0001
0002
0002
0003
0000
0001
0001
0001
0001
0001
0000
0000
0000
ffff
ffff
ffff
ffff
ffff
ffff
ffff
ffff
ffff
0000
0000
0000
0000
0000
0000
0000
0000
0000
0000
0002
0002
0001
0002
0004
0000
0000
0001
0000
0001
0002
0000
0001
0003
ffff
0000
0002
0000
0002
0001
0002
0003
0003
0000
0001
0001
0000
0000
0000
0001
0000
0000
0001
0000
0000
0000
0003
0005
0000
0004
0007
ffff
0001
0004
0000
0000
0000
0000
0000
0000
0001
0001
0000
ffff
0000
0002
0000
0001
0004
0001
0003
0005
0001
0001
0000
0002
0001
0000
0002
0002
0001
0000
0001
0002
0000
0001
0004
ffff
0000
0002
ffff
ffff
ffff
ffff
ffff
ffff
ffff
ffff
ffff
0001
0002
0001
0004
0003
0002
0002
0002
0000
0000
0000
0000
0000
0000
0001
0000
0000
0000
ffff
0000
0001
0000
0001
0002
0000
0002
0003
0000
0000
0000
0001
0001
0001
0001
0002
0001
0000
0000
0001
0000
0000
0001
0000
0000
0001
0000
0000
0001
0000
0001
0002
0000
0001
0002
0000
0001
0000
0001
0001
0001
0001
0001
0001
0000
0000
0004
ffff
0000
0005
ffff
0000
0004
ffff
fffe
fffe
fffe
fffe
fffe
ffff
fffe
fffe
ffff
0000
0003
ffff
0000
0004
0000
0001
0004
fffd
fffc
fffc
fffd
fffc
fffb
fffd
fffc
fffb
0001
0001
0000
0002
0002
0000
0002
0002
0001
0001
0001
0000
0002
0001
0000
0002
0001
0000
ffff
fffd
fffc
fffd
fffb
fffb
fffd
fffc
0000
0000
0000
0000
0000
0000
0000
0000
0000
0000
0000
ffff
fffe
0000
0000
0000
0000
0000
0001
fffe
fffd
ffff
fffd
fffb
fffc
fffe
fffc
fffe
fffd
fffd
fffe
fffe
fffd
fffd
0000
ffff
ffff
0000
0001
0001
0000
0000
0000
ffff
ffff
0000
0004
0005
0002
0001
0003
0002
0000
0000
0001
fffd
fffd
fffe
fffd
fffc
fffd
ffff
fffe
fffe
0000
0000
0000
0000
0000
0000
0000
0000
0000
0003
0003
0003
0001
0002
0003
0000
0001
0001
fffd
fffc
fffc
fffd
fffc
fffc
fffe
ffff
0000
fffe
fffd
fffe
ffff
fffe
fffe
0000
ffff
ffff
0000
0000
ffff
0000
0000
0000
0001
0001
0001
0002
0002
0001
0001
0002
0002
0000
0001
0001
0006
0009
0009
0000
0001
0004
0000
0000
0001
0000
0000
0000
0000
0000
0000
0000
0000
0000
0000
0000
0000
0000
0000
0000
0001
0001
0001
ffff
fffe
fffe
ffff
ffff
ffff
ffff
0000
0000
0000
0000
0001
0000
0000
0000
0000
0000
0000
0001
0001
0001
0000
0000
0000
0000
0000
0000
fffe
fffe
fffe
fffd
fffc
fffd
fffe
fffe
ffff
fffe
fffd
fffd
fffd
fffb
fffc
fffd
fffd
ffff
0000
0000
0000
0000
0000
0000
0000
0000
0000
0002
0003
0006
0000
0000
0002
0000
0000
0000
0000
0000
0000
0000
0000
0000
0000
0000
0000
0000
0000
ffff
0000
0000
0000
0001
0001
0000
000b
000d
0009
0006
000a
000a
0002
0004
0005
ffff
ffff
ffff
0000
0000
0000
0000
0000
0000
ffff
0000
0004
fffc
fffb
fffe
fffe
fffc
fffe
0000
ffff
ffff
0000
0000
ffff
0000
0000
0000
0002
0001
0002
0002
0003
0003
0002
0001
0001
ffff
ffff
fffe
0001
0000
0000
0003
0003
0001
0001
0001
0001
0000
0000
0000
ffff
0000
0000
0001
0001
0000
0001
0002
0002
0000
0001
0001
0008
0007
0005
0006
000b
000a
0003
0005
0005
0001
0000
0002
0002
0000
0002
0001
0000
0000
0000
0001
0001
0000
0000
0000
0000
0000
0000
0007
0006
0004
0005
0008
0007
0003
0004
0004
fffe
fffe
fffe
fffe
fffd
fffe
ffff
ffff
ffff
0001
0002
0002
0000
0000
0000
ffff
ffff
ffff
0000
0000
0000
0000
0001
0001
0000
0000
0001
fffd
fffd
fffe
fffc
fffc
fffd
fffd
fffd
fffd
ffff
fffe
0000
ffff
fffe
ffff
0000
ffff
ffff
fffd
fffc
fffe
fffc
fffb
fffc
fffd
fffc
fffd
0001
0001
0000
0000
0001
0002
0000
0000
0002
fffd
fffd
0000
fffd
fffc
fffd
ffff
fffd
fffe
0002
0002
0000
0002
0004
0003
0000
0001
0002
0008
0008
0009
0004
0006
0008
0003
0002
0004
0004
0004
0001
0000
0001
0001
ffff
0000
0001
fffd
fffd
0000
fffd
fffc
fffd
ffff
fffd
fffe
0000
0000
0000
0000
0000
0000
0000
0000
0000
0003
0002
0000
fffd
fffc
fffe
fffd
fffc
0000
ffff
0000
0000
ffff
fffe
ffff
0000
ffff
0000
0002
0002
0004
0000
0001
0003
0001
0000
0001
0006
0008
0005
0002
0004
0004
0000
0001
0002
0000
0000
0001
0000
0000
0000
0000
0000
0000
ffff
ffff
0000
ffff
fffe
ffff
0000
fffe
ffff
0003
0003
0001
ffff
fffe
ffff
ffff
fffe
0000
fffe
fffc
ffff
0000
fffe
ffff
0001
ffff
0000
0000
ffff
ffff
0000
0000
0000
0001
0001
0001
0000
ffff
0001
0001
0000
0001
0001
0000
0000
0002
0004
0003
0000
0001
0000
fffe
fffe
fffe
0008
0008
0003
0005
0009
0009
0001
0003
0006
0001
0000
fffe
0000
0002
0002
0000
0000
0003
0001
0000
0000
0000
0000
0000
0000
0000
0000
fffd
fffd
fffd
fffd
fffd
fffd
fffe
fffd
fffe
ffff
ffff
ffff
ffff
fffe
fffe
ffff
ffff
ffff
0000
0000
0000
0000
0000
0000
0000
0000
0000
0002
0001
0001
0001
0000
0001
0001
0000
0000
0006
0006
0006
0005
0005
0005
0006
0006
0006
0000
ffff
0000
ffff
ffff
ffff
0000
ffff
ffff
0000
0000
0000
0001
0001
0000
0001
0000
0000
000f
0011
0010
0010
0012
0011
000f
0010
000f
0000
0000
0000
0000
0000
0000
0000
0000
0000
0000
0000
0000
0000
ffff
0000
0001
0000
0001
fffe
fffd
fffd
fffe
fffd
fffd
ffff
fffe
fffe
ffff
fffe
ffff
fffe
fffe
fffe
fffe
fffe
fffe
fffe
fffe
fffe
fffe
fffd
fffe
fffe
fffe
fffe
0000
0000
0000
0000
0000
0000
0000
0000
0000
0009
000a
000a
000a
000c
000b
000a
000b
000a
0007
0009
0008
0008
0009
0008
0005
0007
0005
ffff
fffe
ffff
fffe
fffe
ffff
ffff
ffff
0000
0008
0009
0008
0009
0009
0009
0008
0009
0008
0006
0008
0007
0007
0009
0008
0005
0007
0006
0000
0000
0000
0000
0000
0000
0000
0000
0001
0000
0000
0001
0000
0001
0001
0000
0001
0002
ffff
ffff
ffff
ffff
fffe
ffff
ffff
ffff
ffff
0004
0003
0003
0003
0003
0003
0004
0003
0004
ffff
ffff
ffff
ffff
ffff
ffff
ffff
ffff
ffff
fffb
fffa
fffb
fffa
fffa
fffb
fffb
fffb
fffb
0000
0000
0000
0000
0000
0000
0000
0000
0000
fffe
fffe
fffd
fffe
fffe
fffe
fffe
fffe
fffe
0000
0000
ffff
0000
0000
ffff
0000
0000
0000
0001
0004
0003
0004
0006
0006
0003
0006
0005
0000
ffff
ffff
ffff
ffff
ffff
0000
ffff
ffff
0000
0000
0000
0000
0000
0000
0001
0001
0000
0000
0001
0001
0001
0001
0001
0001
0001
0001
0003
0002
0002
0003
0003
0002
0003
0003
0003
0000
0000
0000
0000
ffff
0000
0000
0000
0000
0001
0000
0000
0000
0000
0000
0000
0000
0000
fffd
fffd
fffd
fffd
fffc
fffd
fffe
fffd
fffd
0001
0000
0000
0001
0000
0000
0002
0001
0001
fffe
fffd
fffe
fffe
fffe
fffe
fffe
fffe
ffff
0003
0002
0003
0002
0002
0002
0003
0003
0003
fffe
fffe
fffe
fffd
fffd
fffe
fffe
fffd
fffe
0002
0003
0003
0003
0003
0003
0003
0003
0003
0000
0000
0000
0000
0000
0000
0000
0000
0000
ffff
ffff
ffff
ffff
0000
0000
0000
0000
0000
fffe
fffe
ffff
fffe
fffe
fffe
fffe
fffe
ffff
0000
0000
0000
0000
0000
0000
0000
0000
0000
0001
0001
0001
0000
0001
0001
0000
0001
0001
0000
0000
0000
0000
0000
0000
0000
0000
0000
0000
0000
0001
0000
0000
0001
0000
0000
0001
0000
ffff
ffff
0000
ffff
ffff
0000
0000
ffff
fffe
fffe
fffe
fffe
fffe
fffe
fffe
fffe
fffe
0000
0000
0000
0000
0000
0000
0000
0000
0001
0005
0006
0005
0007
0008
0006
0006
0007
0005
0000
0000
0000
0000
0000
0000
0000
0000
0000
0001
0002
0002
0002
0002
0002
0002
0002
0002
fffe
fffe
fffe
fffe
fffe
fffe
fffe
fffe
fffe
0003
0003
0003
0003
0004
0003
0003
0003
0003
0003
0004
0004
0004
0004
0004
0004
0004
0004
0000
0000
0000
0000
ffff
0000
0000
0000
0000
0000
0001
0000
0001
0001
0001
0000
0001
0000
0000
ffff
0000
ffff
ffff
0000
0000
ffff
0000
0000
0000
0000
0000
0000
0000
0000
0000
0000
0000
0000
0000
0000
0000
0000
0000
0000
0000
0001
0000
0000
0000
0000
0000
0001
0000
0000
0002
fffc
0006
0004
fffa
0006
0001
fffc
0004
0000
0000
0000
0000
0000
0000
0000
0000
0000
0001
fffd
0002
0001
fffc
0002
0000
fffe
0001
fffe
0006
fff9
fffc
0008
fff7
ffff
0005
fffa
0000
fffe
0004
ffff
fffe
0004
0000
0000
0001
0001
0000
0000
0001
0000
0000
0000
0000
0000
0000
ffff
0000
0001
ffff
0000
0000
ffff
0001
fffe
0002
ffff
fffe
0002
fffe
0000
0001
fffe
0001
0000
0000
0000
0000
0000
0000
0001
ffff
0000
0001
fffd
0000
0001
fffd
0000
0000
ffff
0003
fff7
000b
0003
fff3
000f
0002
fff8
0008
0000
fffe
0002
0000
fffe
0003
0000
ffff
0001
0000
0000
0000
0000
0000
0000
0000
0000
0000
0001
fffe
0001
0001
fffd
0002
0000
fffe
0002
fffe
0007
fff8
fffd
0009
fff6
fffe
0004
fffa
0000
0001
0000
0000
0001
ffff
0000
0000
0000
0000
0000
ffff
0000
0001
fffe
0000
0001
fffe
0001
fffd
0004
0002
fffc
0005
0001
fffe
0002
0000
0003
fffe
0000
0004
fffd
0000
0002
ffff
0000
0000
ffff
0000
0000
ffff
0000
0000
0000
0001
fffe
0002
0001
fffe
0001
0000
ffff
0000
0001
fffd
0003
0002
fffc
0003
0000
fffd
0002
0000
0000
0000
0000
0000
ffff
0000
0000
ffff
ffff
0007
fffb
fffd
0008
fffb
ffff
0004
fffe
0000
0000
0001
0001
0000
0001
0000
0000
0000
0000
0000
0000
0000
0000
0000
0000
0000
0000
ffff
0000
fffc
0000
0000
fffc
0000
0000
ffff
0000
ffff
0001
0000
ffff
0001
0000
0000
0000
fffd
000b
fff9
fffb
000e
fff7
fffe
0008
fffa
0000
ffff
0000
0000
ffff
0000
0000
ffff
0000
0000
ffff
0002
0000
ffff
0002
0000
ffff
0001
0000
0003
fffd
0000
0004
fffc
0000
0002
fffe
0000
ffff
0000
0000
ffff
0001
0000
0000
0000
0002
fffb
0004
0002
fffb
0005
0001
fffd
0002
0003
fff8
0009
0003
fff7
000a
0001
fffb
0006
ffff
0004
0000
fffd
0004
0000
ffff
0002
0000
0000
0000
0000
0000
0000
0000
0000
0000
0000
0001
fff9
0008
0001
fff8
000a
0000
fffc
0005
0000
fffe
0001
0000
fffe
0001
0000
ffff
0000
0000
0001
ffff
0000
0002
fffe
0000
0001
ffff
0000
fffe
0001
0001
fffe
0002
0000
ffff
0001
fffd
0008
fff9
fffc
000a
fff7
0000
0006
fffb
ffff
0002
0000
fffe
0003
0000
ffff
0002
0000
fffd
0005
fffa
fffd
0006
fff8
ffff
0003
fffb
0001
fffd
0003
0002
fffd
0004
0001
fffe
0002
fffc
0009
fffc
fffb
000b
fffa
ffff
0007
fffc
0002
fffb
0004
0003
fffb
0005
0001
fffd
0003
ffff
0003
fffe
fffd
0003
fffd
fffe
0002
ffff
0002
fffc
0004
0004
fffb
0005
0001
fffc
0004
fffe
0004
fffe
fffd
0006
fffc
ffff
0004
fffd
0000
0000
0000
0000
0000
0000
0000
0000
0000
0003
fffd
0004
0005
fffd
0004
0000
fffe
0004
0000
0003
fffe
ffff
0004
fffd
0000
0002
fffe
ffff
0005
fffc
fffd
0006
fffb
fffe
0004
fffd
0000
0000
fffe
0001
0000
ffff
0000
0000
0000
ffff
0002
ffff
ffff
0002
ffff
0000
0001
ffff
ffff
0005
fffe
fffe
0006
fffd
0000
0004
fffe
0001
0000
0000
0002
0000
0000
0000
0000
0000
ffff
0003
0003
fffc
0003
0002
ffff
0002
0000
0000
0000
ffff
0000
0000
ffff
0000
0000
0000
fffe
0005
0000
fffd
0005
0000
ffff
0002
0000
0001
fffe
0002
0002
fffe
0003
0000
ffff
0000
0003
fffa
0006
0005
fff9
0008
0002
fffc
0006
0004
fff9
0009
0005
fff7
000a
0002
fffb
0006
0005
0007
0005
0001
0000
0000
fffb
fffa
fffb
0000
0000
0000
0000
0000
0000
0000
0000
0000
0001
0001
0001
ffff
fffd
fffe
0000
0001
0001
0006
0006
0004
0004
0005
0003
fffa
fffa
fffc
0006
0005
0003
fffe
fffe
ffff
fffe
fffe
ffff
0000
0000
0000
0000
0000
0000
0000
0000
0000
fffe
fffe
ffff
0002
0001
0000
0001
0001
0000
0002
0003
0002
0001
0001
0001
fffc
fffb
fffc
0000
0000
0000
0000
0000
0000
0000
0000
0000
fffe
fffe
fffe
0001
0001
0001
0003
0003
0001
000d
000f
000a
fffe
fffd
fffe
fffd
fffd
fffe
0004
0004
0002
ffff
ffff
ffff
fffe
fffe
ffff
0000
0000
0000
ffff
ffff
0000
0000
0000
0000
fffe
fffe
ffff
0000
0000
0000
0002
0002
0001
fffb
fffa
fffc
0007
0008
0005
0002
0001
0000
0000
0000
0000
0001
0002
0001
ffff
ffff
ffff
0000
0000
0000
0000
0000
0000
0000
0000
0000
0002
0003
0002
ffff
fffe
ffff
ffff
ffff
ffff
0000
0000
0000
0000
0000
0000
ffff
ffff
0000
0000
0000
0000
0000
0000
0000
0000
0000
0000
0002
0003
0002
0000
0000
0000
fffb
fffc
fffc
0004
0005
0003
0002
0002
0001
fffb
fffb
fffc
0000
0000
0000
0000
0000
0000
0000
0000
0000
fffc
fffb
fffc
0002
0003
0002
0002
0002
0001
0000
0000
0000
0000
0000
0000
0000
0000
0000
0000
0000
0000
0000
0000
0000
0000
0000
0000
fffb
fffb
fffc
0004
0004
0003
0008
0008
0004
0000
0000
0000
fffe
fffe
ffff
0000
0000
0000
ffff
fffe
ffff
0006
0007
0004
fffc
fffa
fffc
0001
0001
0001
ffff
ffff
ffff
ffff
ffff
0000
fffe
fffe
fffe
0000
0000
0000
0005
0005
0003
0000
0000
0000
0001
0001
0000
0000
ffff
ffff
0000
0000
0000
0000
0000
0000
0000
0000
0000
ffff
ffff
ffff
fffe
fffe
fffe
0003
0004
0002
fffd
fffd
fffd
0000
ffff
0000
000a
000c
0007
fffe
fffd
fffe
fffd
fffd
ffff
0005
0004
0002
0000
0000
0000
0000
0000
0000
0000
0000
0000
fffb
fffb
fffc
0000
0000
0001
000a
000b
0006
0002
0003
0002
0001
0001
0000
fffd
fffd
fffe
0000
0000
0000
0000
0000
0000
0000
0000
0000
ffff
ffff
ffff
ffff
ffff
ffff
0001
0002
0001
0004
0006
0004
0003
0003
0001
fffb
fffa
fffb
0003
0003
0001
0000
0000
0000
fffe
fffd
ffff
0004
0005
0003
0002
0002
0001
fffa
fff9
fffa
ffff
ffff
0000
ffff
fffe
fffe
0001
0002
0002
0004
0005
0003
0003
0004
0003
fffa
fff8
fffb
fffe
fffe
ffff
fffe
fffd
fffe
0004
0005
0003
fffb
fffa
fffc
0004
0005
0004
0008
0009
0005
fffd
fffe
ffff
0000
0000
0000
0000
0000
0000
0001
0001
0001
0001
0001
0001
fffb
fffb
fffc
0000
0000
0000
0000
0000
0000
0000
0000
0000
ffff
ffff
0000
0005
0004
0003
fffa
fff9
fffc
0000
0000
0000
0001
0002
0001
fffe
fffe
ffff
fffc
fffb
fffc
0000
0000
0000
0004
0004
0002
fffd
fffd
fffe
0003
0003
0002
0002
0002
0001
ffff
ffff
ffff
0000
0000
0000
0000
0000
0000
0000
0000
0000
0002
0002
0002
fffe
fffd
fffe
fffe
fffe
ffff
0005
0004
0003
fffd
fffc
fffe
0001
0001
0001
fff9
fffa
fffd
0002
0002
0001
0000
0000
0000
0000
0000
0000
0000
0000
0000
fffe
fffe
ffff
fffc
fffd
ffff
0005
0004
0002
0000
0000
0000
ffff
ffff
ffff
0000
0000
0000
fffd
fffc
fffd
ffff
fffd
fffe
0006
0008
0006
0000
0000
0000
fffc
fff9
fffa
0003
0005
0004
0007
0003
0000
0009
0002
ffff
0008
0002
ffff
0000
0000
0000
0000
0000
0000
0000
0000
0000
0001
0000
0000
0001
0000
ffff
0001
0000
ffff
0001
0004
0000
0002
0004
0000
0003
0004
0001
ffff
ffff
0001
fffd
fffe
0002
fffe
ffff
0002
0000
0000
0000
0000
0001
0001
0000
0001
0002
0000
0000
0000
0000
0000
0000
0001
0000
0000
fffe
0000
0001
fffe
0000
0001
ffff
0000
0002
0000
0000
0000
0000
0000
0000
0000
0000
0000
ffff
ffff
ffff
ffff
ffff
ffff
ffff
0000
0000
0002
0000
0000
0001
fffd
0000
0001
fffd
0000
ffff
0000
0001
fffe
ffff
0001
ffff
0000
0001
0001
0000
0000
0000
0000
0000
0000
0000
0000
0000
0000
ffff
0000
0000
ffff
0000
0000
0000
fffc
fffe
ffff
fffc
fffe
ffff
fffe
0000
0000
0000
0000
0000
0000
0000
0000
0000
0000
0000
0000
0000
0000
0000
0000
0000
0000
0000
0000
0002
0000
0000
0002
0000
ffff
0002
0000
ffff
0000
0000
0000
0000
0000
0000
0000
0000
0000
0000
0000
0000
0000
0000
0000
0000
0001
0001
0003
0001
0000
0003
0001
0000
0003
0001
0000
0004
0002
0000
0005
0001
ffff
0005
0001
0000
0000
0000
0000
0000
0000
0000
0000
0000
0000
fffc
fffd
0000
fffc
fffe
0000
fffc
ffff
0000
0000
0000
0000
0001
0000
0000
0001
0000
0000
0000
0000
0000
0000
0000
0000
0000
0000
0000
fffe
ffff
fffe
fffe
fffe
fffe
ffff
ffff
ffff
0000
0000
0000
0000
0000
0000
0000
0000
0000
fffb
ffff
0001
fffc
0000
0001
fffd
0001
0003
0000
0000
0000
0000
0000
0000
0000
0000
0000
fffe
fffe
0000
fffe
fffe
0000
fffe
fffe
0000
0002
0002
0001
0001
0000
0000
0000
ffff
ffff
0000
0000
0000
0000
0001
0001
0001
0001
0002
0000
ffff
ffff
0000
ffff
ffff
0000
ffff
ffff
0000
fffd
fffe
ffff
fffd
fffe
ffff
fffd
fffe
fffd
fffe
0000
fffd
ffff
0000
fffd
ffff
0001
0000
0000
0000
0000
0000
0001
0000
0001
0001
fffe
fffc
fffe
fffd
fffc
fffe
fffd
fffd
ffff
0001
0001
0000
0001
0000
0000
0001
0000
0000
ffff
0000
0000
0000
0001
0001
0001
0002
0002
0000
0000
0000
0000
0000
0000
0000
0000
0000
fffe
0001
0002
fffe
0002
0002
0000
0002
0003
ffff
0000
0001
fffe
0000
0002
fffe
0000
0002
0000
0002
0000
0000
0002
0000
0000
0002
0002
0001
0000
0000
0001
0000
0000
0001
0000
0000
fffc
0000
0004
fffb
0000
0004
fffd
0001
0005
0000
ffff
0000
0000
ffff
ffff
0000
ffff
ffff
fffd
fffd
ffff
fffd
fffd
fffe
fffc
fffd
fffe
0002
0000
ffff
0002
0000
ffff
0003
0001
0000
fffc
ffff
0002
fffc
0000
0003
fffd
0000
0003
0000
0000
0000
0000
0000
0000
0000
0000
0000
0005
0002
ffff
0007
0003
ffff
0008
0004
0000
ffff
0000
0000
ffff
0000
0000
ffff
0000
0001
fffd
fffe
0000
fffd
fffe
0000
fffd
ffff
0000
0000
0000
ffff
0000
0000
ffff
0000
0000
0000
ffff
ffff
0000
fffe
ffff
0000
fffe
0000
0000
fffe
0000
0001
fffe
0000
0001
ffff
0000
0002
0001
0001
ffff
0003
0001
0000
0003
0002
0000
fffd
fffe
0001
fffc
fffe
0003
fffc
ffff
0003
0001
0001
0001
0001
0000
0000
0000
0000
0000
fffd
fffe
0000
fffd
fffe
0000
fffd
ffff
0001
ffff
0000
0001
0000
0002
0003
0002
0004
0004
0001
ffff
ffff
0001
ffff
ffff
0001
0000
ffff
0003
0000
ffff
0004
0000
ffff
0003
0000
ffff
0000
0001
0000
0002
0002
0001
0001
0001
0000
0000
0000
0000
0000
0000
0000
0000
0000
0000
0000
0000
0000
0001
0000
0000
0000
0000
0000
0000
0000
0000
0001
0001
0001
0001
0001
0000
0000
0001
0000
0001
0002
0001
0000
0001
0001
ffff
ffff
ffff
ffff
ffff
ffff
ffff
ffff
ffff
0000
0000
0000
0001
0001
0000
0001
0001
0000
0000
0000
0000
0001
0001
0000
0000
0001
0001
ffff
ffff
ffff
ffff
ffff
ffff
ffff
ffff
ffff
0000
0000
0000
0000
0000
0000
0001
0001
0000
0002
0002
0001
0002
0003
0002
0000
0001
0001
0000
0001
0000
0000
0001
0001
0000
0001
0001
0000
0000
0000
0000
0000
0000
0000
0000
0000
0000
0000
0000
0000
0000
0000
0001
0001
0000
0000
0001
0000
0001
0001
0001
0001
0001
0000
ffff
ffff
0000
ffff
ffff
ffff
0000
0000
0000
0000
0000
0000
ffff
ffff
0000
ffff
ffff
0000
0000
0000
0000
0001
0001
0000
0000
0000
0000
ffff
ffff
ffff
ffff
ffff
ffff
ffff
ffff
ffff
ffff
ffff
ffff
ffff
ffff
ffff
ffff
ffff
ffff
0000
0000
0000
0001
0001
0000
0001
0001
0000
0000
0000
0000
0001
0001
0000
0001
0001
0000
0000
0000
0000
0000
0000
0000
0000
0000
0000
0000
0000
0000
0001
0001
0000
0001
0001
0000
0000
0000
0000
0000
0000
0000
0000
0000
0000
0000
0000
0000
0000
0000
0000
ffff
0000
0000
0000
0000
0000
0001
0002
0000
0001
0002
0001
0000
0000
0000
0000
0000
0000
0000
0000
0000
0000
0000
0000
0001
0001
0000
0001
0002
0000
ffff
ffff
0000
ffff
ffff
ffff
ffff
ffff
ffff
0000
0000
0000
0000
0001
0001
0000
0001
0000
fffe
fffe
ffff
fffd
fffc
fffe
fffd
fffd
fffe
ffff
ffff
ffff
fffe
fffe
ffff
fffe
fffe
ffff
0000
0000
0000
0000
0000
0000
0000
0000
0000
0000
0000
0000
0000
0001
0000
0001
0001
0000
0000
0000
0000
0000
0002
0001
0001
0002
0001
0000
0000
0000
0000
0000
0000
0000
0000
0000
0000
0000
0001
0000
0001
0001
0001
0002
0001
0000
0000
0000
0001
0001
0000
0001
0000
0000
0000
0000
0000
ffff
ffff
0000
ffff
ffff
ffff
0000
0000
0000
0000
0000
0000
0000
0000
0000
0000
0000
0000
0001
0001
0000
0001
0001
0000
0000
0001
0000
0001
0002
0001
0000
0001
0001
0000
0000
0000
0001
0001
0000
0001
0001
0000
0000
0000
0000
0000
0000
0000
0000
0000
0000
0001
0001
0000
0002
0003
0001
0001
0003
0001
0000
0000
0000
0000
0000
0000
0000
0000
0000
0000
0001
0000
0001
0002
0001
0001
0002
0001
0000
0000
0000
0000
0001
0000
0000
0001
0000
0001
0001
0000
0001
0002
0001
0001
0002
0001
0000
0000
0000
0000
0000
0000
0000
0000
0000
0000
0000
0000
0001
0001
0000
0001
0002
0000
0000
0000
0000
0000
0000
0000
0000
0000
0000
0000
0000
0000
0000
0001
0000
0001
0001
0000
0000
0000
0000
0001
0001
0000
0000
0001
0000
0000
0000
0000
0000
0001
0000
0000
0001
0000
0000
0000
0000
0000
0000
0000
0000
0000
0000
0000
0000
0000
0000
0000
0000
0000
0000
0000
0000
0002
0001
0000
0003
0001
0000
0002
0001
0000
0000
0000
ffff
ffff
0000
ffff
ffff
0000
0000
0001
0000
0000
0002
0001
0001
0002
0001
fffd
fffd
fffe
fffc
fffc
fffd
fffc
fffc
fffd
0000
0000
0000
0001
0001
0000
0001
0001
0000
0000
0000
0000
0001
0000
0000
0001
0000
0000
0000
0000
0000
0000
0000
0000
0000
0000
0000
ffff
ffff
0000
ffff
ffff
ffff
ffff
ffff
ffff
0000
0000
0000
0000
0000
0000
0000
0000
0000
0000
0000
0000
0000
0000
0000
0002
0002
0001
0001
0001
0001
0001
0001
0001
0001
0002
0002
0000
0000
0000
0000
0000
0000
0000
0000
0000
0000
0000
0000
0000
ffff
0000
0000
0000
0000
0001
0001
0000
0001
0001
0001
0002
0002
0002
0000
0000
0000
0000
0001
0000
0000
0000
0000
0000
0000
0000
ffff
ffff
ffff
ffff
ffff
ffff
0000
0000
0000
0000
0000
0000
0001
0002
0002
0000
0000
0000
0000
0000
0000
0000
0001
0000
0000
0000
0000
0000
0000
0000
0000
0000
0000
0000
0000
0000
ffff
ffff
0000
ffff
ffff
ffff
0000
0000
0000
ffff
fffe
ffff
0000
ffff
ffff
0000
0000
0000
0000
0000
0000
0000
0000
0000
0001
0002
0001
0001
0002
0002
0000
0001
0001
0000
0000
0000
0000
0000
0000
0000
0000
0000
0000
0000
0000
0000
0000
0000
0000
0000
0000
0001
0002
0001
0002
0002
0001
0001
0002
0001
0000
ffff
0000
ffff
ffff
ffff
0000
0000
0000
0000
0000
0000
0000
0000
0000
0001
0001
0001
ffff
ffff
0000
ffff
ffff
ffff
0000
ffff
ffff
0000
0000
0000
ffff
ffff
ffff
0000
ffff
ffff
0000
0000
0000
0000
0000
0000
0000
0000
0000
0000
0000
0000
ffff
ffff
ffff
ffff
ffff
ffff
ffff
ffff
0000
ffff
fffe
ffff
0000
ffff
ffff
0001
0001
0001
0001
0001
0001
0001
0001
0000
0000
0000
0000
0000
0000
0000
0001
0000
0001
0001
0002
0001
0002
0003
0003
0002
0003
0003
0000
0000
0000
0000
0000
0000
0000
ffff
0000
0000
0000
0000
0000
0000
0000
0000
0000
0000
0000
0000
0000
0001
0001
0001
0001
0002
0001
0000
0000
0000
0000
ffff
0000
0000
ffff
0000
0000
ffff
0000
ffff
ffff
ffff
0000
ffff
0000
0000
0000
0000
0000
0000
0000
0000
0000
0000
ffff
ffff
ffff
ffff
ffff
ffff
0000
0000
0000
0000
0000
0000
ffff
ffff
ffff
ffff
ffff
ffff
0000
0000
0000
0000
0000
0000
0000
0000
0000
0000
0000
0000
0000
0000
0000
0000
0000
0000
0000
0000
0000
0000
0000
0000
0000
0000
0000
0000
0000
0000
0000
0000
0000
0001
0001
0001
0000
0000
0000
0000
0000
0000
0000
0000
0001
0000
0000
0000
0000
0000
0000
0002
0002
0002
0000
0000
0000
0000
0000
0000
0000
0000
0000
0001
0000
0000
0001
0000
0000
0002
0003
0003
0000
0000
0000
0000
0000
0000
0000
0000
0000
0000
0000
0000
ffff
fffe
ffff
ffff
ffff
ffff
0000
0000
0000
0000
ffff
0000
0000
ffff
0000
0000
ffff
ffff
0000
ffff
ffff
0000
0000
0000
0000
0000
0000
0000
0000
0000
0000
0000
0000
0000
ffff
0000
ffff
fffe
ffff
0000
0000
0000
0001
0001
0000
0001
0001
0001
0001
0002
0001
0000
0000
0000
0000
0000
0000
0000
0000
0000
0000
ffff
0000
ffff
ffff
ffff
0000
ffff
0000
0000
0000
0000
0000
0000
0000
0000
0000
0000
0000
0000
0000
0000
0000
0000
0000
0000
0000
0000
ffff
0000
0000
ffff
ffff
0000
ffff
0000
0000
0000
0000
0000
0000
0000
0000
0000
0000
0002
0003
0002
0002
0003
0002
0001
0002
0001
0000
0000
0000
0000
0000
0000
ffff
0000
0000
0000
0000
0000
0001
0001
0000
0002
0002
0001
0000
ffff
ffff
ffff
ffff
ffff
0000
ffff
ffff
0000
0000
0000
0000
ffff
0000
0000
0000
0000
0000
0000
0000
ffff
0000
0000
0000
0000
0000
0004
0005
0004
0005
0006
0005
0004
0005
0004
0000
0000
0000
0000
0000
0000
0000
0000
0000
0000
0000
0000
0000
ffff
0000
0000
0000
0000
0000
ffff
0000
0000
ffff
ffff
0000
ffff
ffff
0002
0003
0002
0002
0003
0003
0002
0002
0002
0000
0000
0000
0000
0000
0000
0000
0000
0001
0000
ffff
0000
ffff
ffff
0000
ffff
ffff
0000
fffd
fffd
fffd
fffd
fffd
fffd
fffd
fffd
fffd
0002
0002
0002
0002
0002
0002
0002
0002
0002
0000
ffff
ffff
0000
0000
ffff
0000
0000
0000
0001
0001
0001
0003
0002
0001
0002
0001
0001
0007
0008
0007
0008
0008
0008
0007
0007
0007
0003
0004
0003
0003
0004
0003
0003
0004
0003
0000
0000
0000
0000
ffff
0000
0001
0000
0002
fffe
fffe
fffe
fffe
fffe
fffe
fffe
fffe
fffe
fffe
fffe
fffe
fffe
fffe
fffe
fffe
fffe
fffe
0000
0000
0000
0001
0001
0001
0000
0001
0000
ffff
ffff
ffff
ffff
ffff
ffff
ffff
ffff
ffff
fffd
fffd
fffd
fffd
fffd
fffd
fffe
fffd
fffe
0000
0001
0001
0001
0002
0002
0001
0002
0001
0000
ffff
0000
ffff
ffff
ffff
0000
0000
ffff
0004
0005
0004
0005
0006
0005
0004
0005
0004
0000
0000
0000
0000
ffff
0000
0000
0000
0000
0002
0003
0002
0002
0003
0002
0002
0002
0002
0004
0004
0004
0004
0005
0004
0004
0004
0003
0000
0000
0000
0000
ffff
0000
0000
0000
0000
0002
0002
0002
0002
0002
0002
0002
0002
0002
0000
0000
0001
0000
ffff
0001
0000
0000
0002
ffff
ffff
ffff
ffff
ffff
ffff
ffff
ffff
ffff
0001
0000
0000
0001
0000
0000
0000
0000
0000
0000
0000
0000
0000
0000
0000
0000
0000
0000
0000
0000
0000
0000
0000
0000
0000
0000
0000
fffe
ffff
ffff
fffe
ffff
ffff
fffe
fffe
ffff
0000
0000
0000
0000
0000
0000
0000
0000
0000
0000
0000
0000
0000
0000
0000
0000
0000
0000
0006
0006
0006
0006
0007
0006
0005
0006
0006
0000
0000
ffff
ffff
ffff
ffff
0000
ffff
0000
0002
0002
0002
0002
0003
0002
0002
0003
0002
0001
0002
0002
0002
0002
0002
0001
0002
0002
0003
0003
0002
0003
0003
0002
0002
0002
0002
0000
ffff
0000
0000
ffff
0000
0000
ffff
0000
0000
0000
0000
0000
0000
0000
0000
0000
0000
0000
0000
0001
0000
0000
0000
0000
0000
0000
0002
0003
0002
0002
0003
0002
0001
0002
0001
0000
ffff
0001
0000
fffe
0000
0000
ffff
0000
0000
0000
0000
0000
0000
0000
0000
0000
0000
0000
0000
0000
0000
ffff
0000
0000
0000
0001
0000
ffff
0000
ffff
ffff
0000
0000
0000
0000
0002
0001
0003
0003
0002
0003
0002
0002
0002
0006
0006
0006
0006
0007
0006
0005
0006
0005
0000
0000
0000
0000
0000
0000
0001
0000
0000
fffe
fffe
ffff
fffe
fffe
fffe
fffe
fffe
ffff
ffff
ffff
0000
ffff
ffff
0000
0000
ffff
0000
0000
0000
0000
0000
0000
0000
0000
0000
0000
0003
0003
0003
0003
0003
0003
0003
0003
0003
ffff
ffff
0000
ffff
ffff
ffff
ffff
ffff
ffff
0000
0000
0000
ffff
ffff
0000
0000
0000
0000
0000
fffe
0000
0000
ffff
0000
0000
ffff
0000
0001
0001
0001
0001
0001
0001
0001
0001
0001
0000
0000
0000
0000
ffff
0000
0000
ffff
0000
0003
0004
0003
0003
0004
0004
0003
0004
0003
0000
0000
0000
0000
0000
0000
0000
0000
0000
ffff
0000
0000
ffff
0000
0000
ffff
ffff
0000
ffff
0000
0001
0000
0000
0002
ffff
0000
0001
0000
0000
0000
0000
0000
0000
0000
0000
0000
0001
0002
0003
0001
0001
0002
0000
0000
0002
0000
0000
0000
0000
0000
0000
ffff
ffff
0000
0001
0001
0000
0002
0003
0001
0001
0001
0000
0000
0000
0000
0000
0000
0000
0000
0000
0000
0000
0000
0000
0000
0000
0000
0000
0000
0000
0000
0000
0000
0000
0000
0000
0000
0000
0000
0000
0000
0000
0000
0000
0000
0000
0000
0000
0000
0000
0000
0000
0000
0000
0000
0000
0000
0000
0001
0001
0001
0003
0003
0000
0001
0002
0000
0000
0000
0000
0000
0000
0000
0000
0000
0001
0001
0001
0000
0001
0001
0000
0000
0000
0000
0000
0000
0000
0000
0000
0000
0000
0000
0000
0000
0000
0000
0000
0000
0000
0000
0000
0000
0000
0000
0000
0000
0000
0000
0000
0000
0004
0004
0004
0004
0005
0004
0003
0004
0003
0000
0000
0001
0000
0000
0001
0000
0000
0000
0000
0000
0000
0000
0000
0000
0000
0000
0000
0000
0000
0000
0000
0000
0000
0000
0000
0000
0000
0000
0000
0000
0000
0000
0000
ffff
0000
0000
0000
0000
0000
0000
0000
ffff
ffff
0000
0000
0000
0000
0000
0000
0000
0000
0000
0000
0000
0000
0000
ffff
0000
0000
0000
0000
0000
0000
0000
0000
0000
0000
0000
0000
0000
0000
0002
0002
0002
0001
0002
0002
0001
0001
0001
0000
0000
0000
ffff
ffff
ffff
ffff
ffff
ffff
0001
0001
0000
0001
0001
0001
0001
0001
0000
0000
0000
0000
0000
0000
0000
ffff
0000
0000
0000
0000
0000
0000
0001
0000
0000
0000
0000
0000
0000
0000
0000
0000
0000
0000
0000
0000
000b
000c
000d
000a
000c
000c
0008
000a
000a
0000
0000
0000
0000
0000
0000
0000
0000
0000
0001
0002
0003
0000
0000
0001
0000
0000
0001
0000
0001
0002
fffe
ffff
0000
ffff
ffff
0000
0000
0000
0000
ffff
0000
0000
0000
0000
0000
0000
0000
0000
0000
0000
0000
0000
0000
0000
0002
0003
0003
ffff
0000
0000
ffff
0000
0000
0000
0000
0000
0000
0000
0000
0000
0000
0000
0000
0000
0000
0000
0000
0000
0000
0000
0000
0000
0000
0000
0000
0000
0000
0000
0000
0000
0000
0000
0000
0000
0000
0000
0000
0000
0000
0000
0000
0000
0000
0001
0000
0000
0000
0000
0000
0000
0000
0000
0000
0000
0000
0000
0000
0000
0000
0000
0000
0000
0000
0000
0000
0000
0000
0000
0000
0000
0001
0000
0000
0000
0000
0000
0000
0001
0000
0000
0000
0000
0000
0000
0000
0000
0000
fffe
ffff
ffff
ffff
ffff
ffff
ffff
0000
0000
ffff
ffff
0000
ffff
ffff
0000
0000
0000
0000
0000
0000
0000
ffff
0000
0000
0000
0000
0000
0000
0000
0000
0000
0000
0000
ffff
0000
0000
ffff
ffff
0000
ffff
fffe
0000
0000
0000
0000
0000
0000
0000
0000
0000
0000
0000
0000
0000
ffff
0000
0000
ffff
0000
ffff
0000
0000
0000
0000
0000
0000
0000
0000
0000
0000
0000
0000
0000
0000
0000
0000
0000
0000
0000
0000
0000
0000
0000
0000
0000
0000
0000
0000
0000
0000
0000
0000
0000
0000
0000
0000
0003
0003
0001
0002
0003
0001
0001
0001
0000
0004
0005
0004
0004
0005
0004
0003
0004
0003
0002
0002
0001
0000
0000
0000
0000
0000
0000
0000
0000
0000
0000
0000
0000
0000
0000
0000
0000
0000
0002
fffe
ffff
0000
fffe
fffe
0000
0000
0001
0003
0000
0000
0002
ffff
0000
0001
0004
0005
0009
0001
0003
0006
0002
0001
0004
0000
0000
0000
0000
0000
0000
0000
0000
0000
0000
0000
0002
ffff
ffff
0000
ffff
fffe
ffff
0005
0004
0003
0006
0006
0004
0006
0006
0006
0007
0005
0003
0003
0003
0002
0001
0002
0002
0000
ffff
ffff
0000
0000
0000
0001
0001
0001
fffe
fffe
0000
fffe
fffe
fffe
0000
fffe
fffe
0003
0002
0001
0002
0003
0002
0002
0003
0003
0000
0000
0000
0000
0000
0000
0000
0001
0000
fffd
fffd
fffe
fffd
fffd
fffd
ffff
fffe
fffe
000b
000d
000b
0005
0008
0008
0003
0004
0006
0004
0003
0002
0002
0002
0001
0001
0001
0002
0001
0002
0002
0000
0000
0000
0000
0000
0000
fffe
fffe
0000
fffe
fffd
fffe
ffff
fffe
fffe
fffa
fffa
fffa
fffb
fffa
fffa
ffff
fffe
fffe
0000
0000
0000
0000
0000
0000
0001
0001
0001
0001
0001
0001
0000
0000
0000
0000
0000
0000
0001
0001
0003
0000
0000
0001
0000
0000
0000
0000
0000
0000
0000
0000
0000
0000
0000
0000
0000
0000
0000
0000
0000
0000
0001
0001
0000
0001
0001
0002
0000
0001
0002
0002
0001
0002
0003
0003
0004
0002
0003
0004
0003
0003
0004
0000
0000
0000
0000
0000
0000
0000
0000
0000
fffe
fffc
fffc
fffc
fffb
fffc
fffe
fffe
ffff
0000
0000
0000
0000
0000
0000
0000
0000
0000
0001
0002
0002
0000
0000
0000
0000
0000
0000
fffc
fffd
fffe
fffd
fffc
fffc
fffe
fffd
fffd
0001
0001
0001
0000
0000
0000
0000
0000
0000
0000
fffe
fffe
0000
0000
0000
0000
0001
0002
0000
0001
0000
0000
0001
0000
0000
0000
0000
ffff
fffe
ffff
fffd
fffd
fffe
fffe
fffe
ffff
0002
0003
0003
0000
0001
0001
fffe
ffff
ffff
0000
ffff
ffff
0000
0000
0000
0001
0001
0001
ffff
ffff
0001
fffe
fffd
ffff
ffff
fffd
fffe
fffd
fffd
0000
fffc
fffc
fffd
fffe
fffc
fffd
0001
ffff
ffff
fffd
fffc
fffe
fffd
fffd
ffff
0000
0000
0000
0000
0000
0000
0001
0001
0001
fffd
fffc
fffe
fffa
fffa
fffc
fffc
fffb
fffd
0002
0003
0003
0001
0002
0003
0001
0002
0002
0000
ffff
ffff
0001
0000
0000
0003
0002
0001
0000
0000
0000
ffff
ffff
ffff
ffff
ffff
ffff
0005
0005
0002
0004
0006
0004
0004
0006
0005
0006
0004
0002
0003
0003
0002
0001
0002
0002
0003
0003
0001
0003
0004
0002
0004
0005
0004
ffff
ffff
0001
fffe
fffe
ffff
ffff
fffe
ffff
0009
0006
0003
0007
0008
0006
0005
0007
0008
fffe
ffff
0000
fffd
fffd
fffe
fffe
fffd
fffe
fffd
fffc
fffd
fffb
fffb
fffc
fffd
fffd
fffe
fffd
fffd
0000
fffd
fffc
fffe
0000
fffd
fffe
0004
0001
0000
0002
0002
0001
0001
0002
0003
0000
0000
0000
0000
0000
0000
0000
0000
0000
ffff
fffd
0002
ffff
fffd
0000
0002
ffff
0000
0000
0000
0000
0000
0000
0000
0000
0001
0001
fffe
fffd
fffd
fffc
fffc
fffc
fffd
fffe
ffff
fffd
fffc
fffe
fffd
fffc
fffc
ffff
fffd
fffd
0000
0000
0000
ffff
ffff
ffff
ffff
ffff
0000
0001
0000
0000
0001
0000
0000
0000
0001
0001
fffe
fffd
0000
ffff
fffd
ffff
0001
ffff
0000
0006
0002
0000
0000
fffe
0000
fffe
fffe
0000
0001
0002
0001
0000
0000
0000
ffff
0000
0000
0001
ffff
0000
fffd
fffd
fffe
fffd
fffd
ffff
fffe
fffe
fffd
0001
0001
0000
0004
0004
0003
fffe
fffd
0000
fffd
fffb
fffd
fffe
fffc
fffc
ffff
0000
0004
fffd
fffb
ffff
fffe
fffc
fffe
0000
ffff
0000
0000
ffff
0000
0000
0000
0000
0009
000a
0009
000a
000b
000a
0009
000a
0009
0000
0001
0001
0000
0000
0001
0000
0000
0001
0000
0000
0000
0000
0000
0000
0000
0000
0000
0000
ffff
ffff
ffff
ffff
ffff
0000
ffff
0000
0005
0006
0005
0006
0007
0006
0005
0006
0005
0000
0000
0000
0000
0000
0000
0000
0000
0000
ffff
ffff
0000
ffff
ffff
ffff
fffe
fffe
ffff
ffff
ffff
ffff
ffff
ffff
ffff
0000
ffff
ffff
0004
0005
0004
0005
0005
0005
0004
0004
0004
0000
0000
0000
0000
0000
0000
0001
0000
0001
0000
0000
0000
0000
0000
0000
0001
0001
0001
0004
0004
0004
0004
0004
0004
0003
0004
0003
0004
0006
0006
0004
0006
0006
0003
0004
0005
0000
0000
0000
0000
0000
0000
0000
0000
0000
0000
0000
0000
0000
0000
0000
0000
0000
0000
fffe
fffe
fffe
fffe
fffe
fffe
ffff
fffe
ffff
0000
0000
0000
0000
0000
0000
0000
0000
0001
0003
0003
0002
0003
0003
0003
0003
0003
0003
fffe
fffe
fffe
fffe
fffe
fffe
ffff
ffff
ffff
0003
0003
0004
0003
0004
0004
0003
0004
0004
0000
ffff
0000
0000
ffff
ffff
ffff
ffff
ffff
0008
0009
0008
0009
000a
0009
0008
0009
0008
0002
0001
0001
0002
0001
0001
0001
0001
0001
0002
0002
0002
0002
0002
0003
0002
0002
0002
0009
000a
0009
000a
000b
000a
0009
000a
0009
0000
0000
0000
0000
ffff
ffff
0000
ffff
0000
0000
0000
0000
0000
0000
0000
0000
0000
0000
0000
0000
0000
0000
0000
0000
0000
0000
0000
fffe
fffe
fffe
fffe
fffe
fffe
fffe
fffe
fffe
0001
0001
0000
0000
0000
0000
0000
0000
0000
0006
0007
0006
0006
0007
0006
0005
0006
0005
ffff
ffff
ffff
ffff
ffff
ffff
ffff
ffff
ffff
0000
0001
0001
0000
0000
0000
0000
0000
0000
0000
0000
0001
0000
0000
0000
0000
ffff
0000
0000
0000
0000
0000
ffff
0000
0000
ffff
0000
0006
0007
0006
0006
0007
0007
0005
0006
0006
0000
0000
0000
ffff
fffe
ffff
0000
ffff
0000
0002
0002
0002
0002
0002
0002
0002
0002
0003
0003
0003
0003
0003
0004
0003
0003
0003
0003
0001
0001
0001
0001
0001
0001
0000
0000
0001
0001
0001
0000
0001
0001
0000
0001
0001
0001
0000
0000
0000
0000
0000
0000
0000
0000
0000
0000
0000
0000
0000
0000
0000
0000
0000
0000
0001
0001
0002
0001
0001
0002
0001
0001
0002
0000
0000
0000
0000
0000
0000
0000
0000
0000
ffff
ffff
ffff
ffff
fffe
fffe
ffff
fffe
ffff
0000
0000
0000
0000
ffff
ffff
0000
ffff
0000
ffff
fffe
ffff
ffff
fffe
ffff
0000
ffff
ffff
0005
0005
0003
0006
0006
0004
0005
0005
0004
0005
0005
0005
0005
0006
0005
0004
0005
0005
0000
ffff
0000
0000
ffff
0000
0000
ffff
0000
ffff
ffff
ffff
ffff
ffff
ffff
ffff
ffff
ffff
fffe
fffe
ffff
fffe
fffe
ffff
fffe
ffff
ffff
0000
0001
0001
0000
0000
0001
0000
0000
0000
0003
0003
0003
0004
0004
0003
0003
0003
0002
0000
0000
0000
0000
0000
0000
0000
0000
0000
0001
0000
0001
0001
0000
0001
0001
0000
0001
0001
0000
0000
0000
ffff
0000
0000
0000
0000
fffd
fffd
fffd
fffd
fffd
fffd
fffd
fffd
fffd
0001
0000
0000
0000
0000
0000
0000
0000
0000
0001
0001
0001
0001
0002
0001
0001
0002
0001
0000
0000
0001
0000
ffff
0000
0000
ffff
0000
0000
0000
0000
ffff
fffe
0000
0000
ffff
0000
fffb
fffa
0000
fff9
fff9
0000
fff9
fffb
0005
0000
0000
0000
0000
0000
0001
0000
0000
0001
fffc
fffd
0000
fffc
fffd
0002
fffd
fffe
0003
ffff
fffc
fffc
fffc
fffb
fffd
fffe
fffd
0000
0000
ffff
0000
0000
0000
0002
0003
0005
0006
0002
0001
0000
0002
0000
0000
0001
0000
0000
fffd
fffd
0000
fffd
fffd
0000
fffe
fffd
0000
0000
0000
0000
0000
0000
0000
0001
0001
0001
0001
0000
0000
0001
0000
0000
0000
0000
0000
0000
0000
0000
0000
0000
0000
0000
0000
ffff
fffb
fffb
0000
fff8
fff9
0002
fffe
0001
000d
0000
ffff
0000
0000
0000
0001
0001
0003
0004
0000
0001
0002
0000
0002
0003
0000
0002
0003
fffd
fffe
0002
fffd
fffd
0001
fffe
fffe
0001
0000
0000
0000
0000
fffe
ffff
0001
fffe
fffe
0001
0000
0000
0001
0000
ffff
0000
0000
0000
0000
0000
0000
0000
0000
0000
0000
0000
0000
fffe
fffe
0000
fffd
fffd
0001
fffe
ffff
0004
0001
0000
0000
0001
0000
0000
0001
0000
ffff
0001
0000
0000
0001
0000
0000
0001
0000
ffff
fffe
fffc
fffe
fffc
fffb
ffff
fffc
fffc
0002
fffd
fffc
ffff
fffb
fffb
0000
fffb
fffc
0003
0000
0000
0000
0000
0000
0000
0000
0000
0000
0004
0003
0003
0004
0004
0002
0003
0001
0000
ffff
ffff
0000
ffff
ffff
0000
ffff
ffff
0000
0000
0000
0001
0000
0001
0002
0000
0001
0002
fffc
fffd
0001
fffb
fffb
0000
fffd
fffc
ffff
0000
0000
0001
0000
0001
0002
0000
0001
0002
0003
0001
0000
0004
0002
0000
0004
0001
0000
0000
0000
0000
0000
0000
0000
0000
0000
0001
0001
0003
0004
0001
0004
0004
0001
0001
0002
fffd
0000
0001
ffff
0002
0003
ffff
0002
0002
0002
0001
0000
0002
0001
0000
0001
0000
0000
fffd
ffff
0003
fffd
fffe
0004
fffd
fffe
0003
fffc
ffff
0007
fffa
fffd
0007
fffc
fffd
0004
0005
0005
0005
0006
0008
0006
0005
0005
0004
0001
0001
0000
0001
0001
0000
0001
0000
0000
ffff
0002
0008
fffe
0001
0008
fffe
0000
0003
ffff
fffe
ffff
fffd
fffd
0000
fffe
ffff
0002
0003
0000
0000
0002
0000
ffff
0002
0000
ffff
ffff
0000
0001
ffff
0000
0002
0000
0000
0001
0000
ffff
fffe
ffff
fffd
fffe
0001
0000
0001
0000
0000
0001
0001
0001
0001
0003
0004
0004
0000
fffe
fffd
fffe
fffc
fffe
0000
fffe
0000
fffd
fffd
0001
fffc
fffd
0002
fffd
fffe
0002
0002
0000
0001
0002
0001
0001
0006
0005
0005
fffd
fffe
0003
fffc
fffe
0003
fffd
fffe
0002
0003
0005
0006
0003
0005
0005
0002
0001
0001
fffc
fffb
0001
fffb
fffa
0001
fffb
fffb
0001
0002
0000
0000
0002
0001
0001
0004
0003
0002
0000
0000
0000
0000
0000
0000
0000
0000
0000
fffb
fff9
0000
fffa
fff9
0000
fffa
fff9
0001
0001
0000
0000
0001
0000
0000
0001
0000
0000
0002
0002
0002
0002
0002
0002
0002
0001
0000
fffd
fffd
0000
fffc
fffc
0000
fffe
fffc
0000
0001
0001
0001
0002
0002
0002
0002
0001
0001
0002
0001
0000
0002
0001
0000
0002
0001
0000
fffe
fffc
0000
fffd
fffb
ffff
fffd
fffb
ffff
0003
0003
0005
0005
0007
0006
0007
0008
0008
0000
0001
0002
0000
0002
0003
0000
